{
  "version": "1.0",
  "truncation": null,
  "padding": null,
  "added_tokens": [
    {
      "id": 0,
      "content": "<|endoftext|>",
      "single_word": false,
      "lstrip": false,
      "rstrip": false,
      "normalized": false,
      "special": true
    },
    {
      "id": 1,
      "content": "<|pad|>",
      "single_word": false,
      "lstrip": false,
      "rstrip": false,
      "normalized": false,
      "special": true
    },
    {
      "id": 2,
      "content": "<|unk|>",
      "single_word": false,
      "lstrip": false,
      "rstrip": false,
      "normalized": false,
      "special": true
    },
    {
      "id": 3,
      "content": "<|bos|>",
      "single_word": false,
      "lstrip": false,
      "rstrip": false,
      "normalized": false,
      "special": true
    },
    {
      "id": 4,
      "content": "<|eos|>",
      "single_word": false,
      "lstrip": false,
      "rstrip": false,
      "normalized": false,
      "special": true
    },
    {
      "id": 5,
      "content": "<|sep|>",
      "single_word": false,
      "lstrip": false,
      "rstrip": false,
      "normalized": false,
      "special": true
    },
    {
      "id": 6,
      "content": "<|mask|>",
      "single_word": false,
      "lstrip": false,
      "rstrip": false,
      "normalized": false,
      "special": true
    },
    {
      "id": 7,
      "content": "<|user|>",
      "single_word": false,
      "lstrip": false,
      "rstrip": false,
      "normalized": false,
      "special": true
    },
    {
      "id": 8,
      "content": "<|assistant|>",
      "single_word": false,
      "lstrip": false,
      "rstrip": false,
      "normalized": false,
      "special": true
    },
    {
      "id": 9,
      "content": "<|system|>",
      "single_word": false,
      "lstrip": false,
      "rstrip": false,
      "normalized": false,
      "special": true
    }
  ],
  "normalizer": {
    "type": "NFKC"
  },
  "pre_tokenizer": {
    "type": "ByteLevel",
    "add_prefix_space": false,
    "trim_offsets": true,
    "use_regex": true
  },
  "post_processor": {
    "type": "TemplateProcessing",
    "single": [
      {
        "Sequence": {
          "id": "A",
          "type_id": 0
        }
      },
      {
        "SpecialToken": {
          "id": "<|endoftext|>",
          "type_id": 0
        }
      }
    ],
    "pair": [
      {
        "Sequence": {
          "id": "A",
          "type_id": 0
        }
      },
      {
        "SpecialToken": {
          "id": "<|endoftext|>",
          "type_id": 0
        }
      },
      {
        "Sequence": {
          "id": "B",
          "type_id": 1
        }
      },
      {
        "SpecialToken": {
          "id": "<|endoftext|>",
          "type_id": 1
        }
      }
    ],
    "special_tokens": {
      "<|endoftext|>": {
        "id": "<|endoftext|>",
        "ids": [
          0
        ],
        "tokens": [
          "<|endoftext|>"
        ]
      }
    }
  },
  "decoder": {
    "type": "ByteLevel",
    "add_prefix_space": true,
    "trim_offsets": true,
    "use_regex": true
  },
  "model": {
    "type": "BPE",
    "dropout": null,
    "unk_token": "<|unk|>",
    "continuing_subword_prefix": null,
    "end_of_word_suffix": null,
    "fuse_unk": false,
    "byte_fallback": false,
    "ignore_merges": false,
    "vocab": {
      "<|endoftext|>": 0,
      "<|pad|>": 1,
      "<|unk|>": 2,
      "<|bos|>": 3,
      "<|eos|>": 4,
      "<|sep|>": 5,
      "<|mask|>": 6,
      "<|user|>": 7,
      "<|assistant|>": 8,
      "<|system|>": 9,
      "!": 10,
      "\"": 11,
      "#": 12,
      "$": 13,
      "%": 14,
      "&": 15,
      "'": 16,
      "(": 17,
      ")": 18,
      "*": 19,
      "+": 20,
      ",": 21,
      "-": 22,
      ".": 23,
      "/": 24,
      "0": 25,
      "1": 26,
      "2": 27,
      "3": 28,
      "4": 29,
      "5": 30,
      "6": 31,
      "7": 32,
      "8": 33,
      "9": 34,
      ":": 35,
      ";": 36,
      "<": 37,
      "=": 38,
      ">": 39,
      "?": 40,
      "@": 41,
      "A": 42,
      "B": 43,
      "C": 44,
      "D": 45,
      "E": 46,
      "F": 47,
      "G": 48,
      "H": 49,
      "I": 50,
      "J": 51,
      "K": 52,
      "L": 53,
      "M": 54,
      "N": 55,
      "O": 56,
      "P": 57,
      "Q": 58,
      "R": 59,
      "S": 60,
      "T": 61,
      "U": 62,
      "V": 63,
      "W": 64,
      "X": 65,
      "Y": 66,
      "Z": 67,
      "[": 68,
      "\\": 69,
      "]": 70,
      "^": 71,
      "_": 72,
      "`": 73,
      "a": 74,
      "b": 75,
      "c": 76,
      "d": 77,
      "e": 78,
      "f": 79,
      "g": 80,
      "h": 81,
      "i": 82,
      "j": 83,
      "k": 84,
      "l": 85,
      "m": 86,
      "n": 87,
      "o": 88,
      "p": 89,
      "q": 90,
      "r": 91,
      "s": 92,
      "t": 93,
      "u": 94,
      "v": 95,
      "w": 96,
      "x": 97,
      "y": 98,
      "z": 99,
      "{": 100,
      "|": 101,
      "}": 102,
      "~": 103,
      "¡": 104,
      "¢": 105,
      "£": 106,
      "¤": 107,
      "¥": 108,
      "¦": 109,
      "§": 110,
      "¨": 111,
      "©": 112,
      "ª": 113,
      "«": 114,
      "¬": 115,
      "®": 116,
      "¯": 117,
      "°": 118,
      "±": 119,
      "²": 120,
      "³": 121,
      "´": 122,
      "µ": 123,
      "¶": 124,
      "·": 125,
      "¸": 126,
      "¹": 127,
      "º": 128,
      "»": 129,
      "¼": 130,
      "½": 131,
      "¾": 132,
      "¿": 133,
      "Â": 134,
      "Ã": 135,
      "Ä": 136,
      "Å": 137,
      "Æ": 138,
      "Ç": 139,
      "È": 140,
      "É": 141,
      "Ê": 142,
      "Ë": 143,
      "Ì": 144,
      "Í": 145,
      "Î": 146,
      "Ï": 147,
      "Ð": 148,
      "Ñ": 149,
      "Ò": 150,
      "Ó": 151,
      "Ô": 152,
      "Õ": 153,
      "Ö": 154,
      "×": 155,
      "Ø": 156,
      "Ù": 157,
      "Ú": 158,
      "Û": 159,
      "Ü": 160,
      "Ý": 161,
      "Þ": 162,
      "ß": 163,
      "à": 164,
      "á": 165,
      "â": 166,
      "ã": 167,
      "ä": 168,
      "å": 169,
      "æ": 170,
      "ç": 171,
      "è": 172,
      "é": 173,
      "ê": 174,
      "ë": 175,
      "ì": 176,
      "í": 177,
      "ï": 178,
      "ð": 179,
      "ó": 180,
      "ĉ": 181,
      "Ċ": 182,
      "Ġ": 183,
      "Ģ": 184,
      "ģ": 185,
      "Ĥ": 186,
      "ĥ": 187,
      "Ħ": 188,
      "ħ": 189,
      "Ĩ": 190,
      "ĩ": 191,
      "Ī": 192,
      "ī": 193,
      "Ĭ": 194,
      "ĭ": 195,
      "Į": 196,
      "į": 197,
      "İ": 198,
      "ı": 199,
      "Ĳ": 200,
      "ĳ": 201,
      "Ĵ": 202,
      "ĵ": 203,
      "Ķ": 204,
      "ķ": 205,
      "ĸ": 206,
      "Ĺ": 207,
      "ĺ": 208,
      "Ļ": 209,
      "ļ": 210,
      "Ľ": 211,
      "ľ": 212,
      "Ŀ": 213,
      "ŀ": 214,
      "Ł": 215,
      "ł": 216,
      "Ń": 217,
      "Ġt": 218,
      "Ġa": 219,
      "he": 220,
      "in": 221,
      "re": 222,
      "Ġthe": 223,
      "on": 224,
      "er": 225,
      "Ġo": 226,
      "at": 227,
      "Ġs": 228,
      "en": 229,
      "Ġc": 230,
      "Ġw": 231,
      "es": 232,
      "is": 233,
      "nd": 234,
      "it": 235,
      "or": 236,
      "Ġp": 237,
      "al": 238,
      "Ġb": 239,
      "ed": 240,
      "Ġof": 241,
      "an": 242,
      "Ġf": 243,
      "ing": 244,
      "Ġin": 245,
      "ou": 246,
      "ar": 247,
      "Ġm": 248,
      "Ġand": 249,
      "Ġto": 250,
      "ic": 251,
      "Ġd": 252,
      "ion": 253,
      "le": 254,
      "ro": 255,
      "as": 256,
      "Ġh": 257,
      "ent": 258,
      "Ġth": 259,
      "ct": 260,
      "Ġe": 261,
      "il": 262,
      "Ġre": 263,
      "om": 264,
      "ve": 265,
      "Ġl": 266,
      "st": 267,
      "Ġn": 268,
      "ly": 269,
      "Ġbe": 270,
      "Ġis": 271,
      "âĢ": 272,
      "ĠT": 273,
      "se": 274,
      "ol": 275,
      "Ġg": 276,
      "ation": 277,
      "im": 278,
      "id": 279,
      "et": 280,
      "ut": 281,
      "ce": 282,
      "ot": 283,
      "ur": 284,
      "ch": 285,
      "ra": 286,
      "ow": 287,
      "ĠA": 288,
      "Ġfor": 289,
      "ig": 290,
      "ĠS": 291,
      "Ġu": 292,
      "Ġthat": 293,
      "Ġon": 294,
      "Ġst": 295,
      "ver": 296,
      "ĠC": 297,
      "Ġy": 298,
      "ĠI": 299,
      "ir": 300,
      "ul": 301,
      "ay": 302,
      "am": 303,
      "Ġas": 304,
      "ith": 305,
      "el": 306,
      "ad": 307,
      "Ġpro": 308,
      "her": 309,
      "Ġare": 310,
      "Ġcon": 311,
      "Ġan": 312,
      "Ġwith": 313,
      "if": 314,
      "Ġwh": 315,
      "Ġyou": 316,
      "Ġor": 317,
      "Ġit": 318,
      "Ġal": 319,
      "ter": 320,
      "od": 321,
      "ĠM": 322,
      "Ġ(": 323,
      "ĠThe": 324,
      "ment": 325,
      "ge": 326,
      "Ġ1": 327,
      "ĠP": 328,
      "th": 329,
      "op": 330,
      "ate": 331,
      "ist": 332,
      "ers": 333,
      "Ġde": 334,
      "ies": 335,
      "ab": 336,
      "ill": 337,
      "Ġhe": 338,
      "ess": 339,
      "ĠB": 340,
      "Ġex": 341,
      "us": 342,
      "Ġwe": 343,
      "ore": 344,
      "ect": 345,
      "Ġcom": 346,
      "Ġsu": 347,
      "âĢĻ": 348,
      "ity": 349,
      "est": 350,
      "res": 351,
      "ac": 352,
      "Ġha": 353,
      "ive": 354,
      "ĠH": 355,
      "um": 356,
      "rom": 357,
      "ld": 358,
      "os": 359,
      "Ġv": 360,
      "ke": 361,
      "Ġby": 362,
      "ant": 363,
      "em": 364,
      "qu": 365,
      "iv": 366,
      "ĠW": 367,
      "ain": 368,
      "nt": 369,
      "Ġat": 370,
      "pp": 371,
      "igh": 372,
      "ĠD": 373,
      "Ġwas": 374,
      "ud": 375,
      "Ġcan": 376,
      "ĠE": 377,
      "Ġfrom": 378,
      "and": 379,
      "Ġch": 380,
      "oc": 381,
      "Ġr": 382,
      "ĠR": 383,
      "ort": 384,
      "Ġne": 385,
      "ĠF": 386,
      "Ġse": 387,
      "ial": 388,
      "Ġ2": 389,
      "ure": 390,
      "Ġnot": 391,
      "un": 392,
      "Ġle": 393,
      "ical": 394,
      "art": 395,
      "ĠN": 396,
      "ĠâĢ": 397,
      "ĠG": 398,
      "Ġhave": 399,
      "ri": 400,
      "ĠL": 401,
      "og": 402,
      "Ġsh": 403,
      "Ġen": 404,
      "Ġsp": 405,
      "Ġthis": 406,
      "pt": 407,
      "ight": 408,
      "Ġab": 409,
      "all": 410,
      "rou": 411,
      "ich": 412,
      "red": 413,
      "Ġwor": 414,
      "00": 415,
      "ould": 416,
      "ther": 417,
      "ost": 418,
      "The": 419,
      "ions": 420,
      "our": 421,
      "gh": 422,
      "ome": 423,
      "du": 424,
      "ated": 425,
      "Ġim": 426,
      "ine": 427,
      "Ġus": 428,
      "per": 429,
      "Ġpl": 430,
      "ard": 431,
      "out": 432,
      "ag": 433,
      "Ġtheir": 434,
      "ell": 435,
      "ff": 436,
      "ide": 437,
      "act": 438,
      "ĠO": 439,
      "Ġint": 440,
      "pl": 441,
      "ear": 442,
      "ans": 443,
      "ast": 444,
      "age": 445,
      "ak": 446,
      "ust": 447,
      "Ġwhich": 448,
      "ĠJ": 449,
      "ec": 450,
      "Ġk": 451,
      "Ġwhe": 452,
      "Ġyour": 453,
      "Ġthey": 454,
      "ous": 455,
      "iz": 456,
      "ĠU": 457,
      "ood": 458,
      "Ġall": 459,
      "Ġad": 460,
      "ult": 461,
      "ib": 462,
      "ĠIn": 463,
      "Ġcont": 464,
      "Ġwill": 465,
      "Ġinc": 466,
      "end": 467,
      "cc": 468,
      "Ġdis": 469,
      "ru": 470,
      "ap": 471,
      "Ġmore": 472,
      "Ġcomp": 473,
      "ong": 474,
      "Ġres": 475,
      "âĢĿ": 476,
      "ia": 477,
      "ew": 478,
      "ip": 479,
      "vel": 480,
      "ations": 481,
      "Ġhas": 482,
      "ere": 483,
      "so": 484,
      "orm": 485,
      "Ġdo": 486,
      "ary": 487,
      "ater": 488,
      "ĠTh": 489,
      "able": 490,
      "ence": 491,
      "are": 492,
      "ild": 493,
      "Ġman": 494,
      "Ġother": 495,
      "Ġcl": 496,
      "ual": 497,
      "Ġbut": 498,
      "ks": 499,
      "Ġwere": 500,
      "ry": 501,
      "ind": 502,
      "ep": 503,
      "Ġper": 504,
      "ents": 505,
      "Ġte": 506,
      "Ġme": 507,
      "Ġimp": 508,
      "ĠâĢľ": 509,
      "ach": 510,
      "Ġalso": 511,
      "Ġone": 512,
      "ance": 513,
      "'s": 514,
      "ose": 515,
      "reat": 516,
      "ign": 517,
      "ake": 518,
      "Ġ19": 519,
      "ress": 520,
      "ass": 521,
      "ase": 522,
      "av": 523,
      "au": 524,
      "Ġso": 525,
      "ction": 526,
      "Ġj": 527,
      "ition": 528,
      "Ġout": 529,
      "ice": 530,
      "Ġun": 531,
      "ber": 532,
      "Ġar": 533,
      "Ġapp": 534,
      "one": 535,
      "very": 536,
      "ime": 537,
      "Ġpart": 538,
      "Ġabout": 539,
      "ord": 540,
      "Ġstud": 541,
      "ens": 542,
      "ace": 543,
      "Ġev": 544,
      "ount": 545,
      "ish": 546,
      "ory": 547,
      "ĠSt": 548,
      "ok": 549,
      "ack": 550,
      "ame": 551,
      "ire": 552,
      "Ġwho": 553,
      ").": 554,
      "Ġinf": 555,
      "Ġpe": 556,
      "Ġhis": 557,
      "Ġsy": 558,
      "Ġcomm": 559,
      "Ġsc": 560,
      "ors": 561,
      "ub": 562,
      "ite": 563,
      "ue": 564,
      "Ġthem": 565,
      "ang": 566,
      "ces": 567,
      "ĠK": 568,
      "ike": 569,
      "ound": 570,
      "ree": 571,
      "olog": 572,
      "now": 573,
      "Ġ\"": 574,
      "Ġpre": 575,
      "low": 576,
      "Ġbec": 577,
      "ĠIt": 578,
      "Ġup": 579,
      "ric": 580,
      "Ġmay": 581,
      "Ġthan": 582,
      "ie": 583,
      "ile": 584,
      "iff": 585,
      "Ġqu": 586,
      "ople": 587,
      "Ġyear": 588,
      "Ġsome": 589,
      "Ġrec": 590,
      "ays": 591,
      "ĠCh": 592,
      "ates": 593,
      "ail": 594,
      "Ġbeen": 595,
      "Ġwhen": 596,
      "nder": 597,
      "ings": 598,
      "Ġthere": 599,
      "ian": 600,
      "mer": 601,
      "Ġits": 602,
      "ough": 603,
      "Ġag": 604,
      "ren": 605,
      "Ġinto": 606,
      "Ġgo": 607,
      "Ġtime": 608,
      "Ġtra": 609,
      "ph": 610,
      "vers": 611,
      "Ġwork": 612,
      "rit": 613,
      "erv": 614,
      "ĠThis": 615,
      "te": 616,
      "Ġ20": 617,
      "Ġthese": 618,
      "ons": 619,
      "Ġover": 620,
      "ĠV": 621,
      "Ġpeople": 622,
      "Ġdiff": 623,
      "ally": 624,
      "lud": 625,
      "rough": 626,
      "Ġhow": 627,
      "ause": 628,
      "Ġcons": 629,
      "Ġuse": 630,
      "Ġro": 631,
      "ond": 632,
      "Ġhad": 633,
      "Ġcol": 634,
      "Ġra": 635,
      "tern": 636,
      "ms": 637,
      "Ġ3": 638,
      "ll": 639,
      "ific": 640,
      "Ġtr": 641,
      "ove": 642,
      "Ġour": 643,
      "Ġact": 644,
      "Ġbet": 645,
      "we": 646,
      "Ġmost": 647,
      "int": 648,
      "irst": 649,
      "ys": 650,
      "alth": 651,
      "ities": 652,
      "Ġknow": 653,
      "Ġlike": 654,
      "Ġunder": 655,
      "..": 656,
      "lic": 657,
      "Ġbl": 658,
      "ments": 659,
      "ject": 660,
      "Ġwould": 661,
      "lect": 662,
      "ĠY": 663,
      "ious": 664,
      "Ġdes": 665,
      "Ġacc": 666,
      "row": 667,
      "ning": 668,
      "ook": 669,
      "Ġsa": 670,
      "les": 671,
      "velop": 672,
      "Ġnew": 673,
      "stem": 674,
      "Ġtw": 675,
      "Ġsuch": 676,
      "Ġneed": 677,
      "Ġrel": 678,
      "ffect": 679,
      "Ġif": 680,
      "Ġrep": 681,
      "ient": 682,
      "ational": 683,
      "Ġgen": 684,
      "Ġinclud": 685,
      "Ġany": 686,
      "Ġchild": 687,
      "Ġhel": 688,
      "ob": 689,
      "cess": 690,
      "hed": 691,
      "ple": 692,
      "ative": 693,
      "ular": 694,
      "Ġused": 695,
      "Ġpr": 696,
      "ced": 697,
      "Ġwhat": 698,
      "Ġonly": 699,
      "Ġhelp": 700,
      "yp": 701,
      "Ġprodu": 702,
      "ool": 703,
      "Ġph": 704,
      "ating": 705,
      "Ġno": 706,
      "Ġprov": 707,
      "ov": 708,
      "Ġmany": 709,
      "Ġind": 710,
      "Ġam": 711,
      "Ġdevelop": 712,
      "ĠUn": 713,
      "Ġfirst": 714,
      "Ġoff": 715,
      "),": 716,
      "Ġspec": 717,
      "Ġthrough": 718,
      "Ġfe": 719,
      "fter": 720,
      "ath": 721,
      "oss": 722,
      "ise": 723,
      "round": 724,
      "Ġac": 725,
      "ark": 726,
      "uc": 727,
      "ics": 728,
      "Ġexp": 729,
      "Ġreg": 730,
      "iet": 731,
      "Ġpo": 732,
      "uring": 733,
      "Ġem": 734,
      "ne": 735,
      "ful": 736,
      "ts": 737,
      "Ġtwo": 738,
      "erm": 739,
      "Ġsystem": 740,
      "rib": 741,
      "iss": 742,
      "oth": 743,
      "ink": 744,
      "Ġdiffere": 745,
      "ied": 746,
      "Ġob": 747,
      "eth": 748,
      "hen": 749,
      "rop": 750,
      "old": 751,
      "Ġdec": 752,
      "als": 753,
      "ility": 754,
      "Ġass": 755,
      "ible": 756,
      "ased": 757,
      "Ġatt": 758,
      "ange": 759,
      "Ġadd": 760,
      "Ġsur": 761,
      "ten": 762,
      "Ġ-": 763,
      "Ġshould": 764,
      "ĠHe": 765,
      "ures": 766,
      "ĠâĢĵ": 767,
      "arch": 768,
      "ower": 769,
      "ife": 770,
      "fore": 771,
      "In": 772,
      "Ġwell": 773,
      "ert": 774,
      "Ġfl": 775,
      "ble": 776,
      "ween": 777,
      "ng": 778,
      "Ġwater": 779,
      "Ġsupp": 780,
      "ract": 781,
      "ram": 782,
      "Ġyears": 783,
      "Ġrem": 784,
      "Ġ201": 785,
      "aw": 786,
      "Ġsub": 787,
      "own": 788,
      "Ġinv": 789,
      "Ġco": 790,
      "ade": 791,
      "Ġ200": 792,
      "sel": 793,
      "Ġ4": 794,
      "gan": 795,
      "ution": 796,
      "Ġbetween": 797,
      "Ġhealth": 798,
      "Ġsm": 799,
      "cy": 800,
      "Ġcould": 801,
      "hes": 802,
      "Ġpres": 803,
      "Ġhigh": 804,
      "its": 805,
      "ick": 806,
      "Ġwhere": 807,
      "ever": 808,
      "uch": 809,
      "Ġtrans": 810,
      "wn": 811,
      "ily": 812,
      "Ġ5": 813,
      "Ġmake": 814,
      "xt": 815,
      "ants": 816,
      "chool": 817,
      "ology": 818,
      "Ġget": 819,
      "Ġbu": 820,
      "ĠAs": 821,
      "ience": 822,
      "chn": 823,
      "Ġrese": 824,
      "Ġimport": 825,
      "ident": 826,
      "Ġear": 827,
      "ural": 828,
      "ited": 829,
      "form": 830,
      "Ġpers": 831,
      "Ġform": 832,
      "land": 833,
      "Ġinter": 834,
      "meric": 835,
      "Ġmod": 836,
      "Ġher": 837,
      "Ġinst": 838,
      "Ġnum": 839,
      "ivers": 840,
      "ting": 841,
      "Ġpol": 842,
      "ines": 843,
      "ins": 844,
      "Ġdisc": 845,
      "Ġexam": 846,
      "ont": 847,
      "ists": 848,
      "ict": 849,
      "Ġfound": 850,
      "ft": 851,
      "Ġbecause": 852,
      "ually": 853,
      "Ġdifferent": 854,
      "Ġlear": 855,
      "hat": 856,
      "ness": 857,
      "Ġlong": 858,
      "Ġsim": 859,
      "Ġafter": 860,
      "Ġeffect": 861,
      "Ġlar": 862,
      "ata": 863,
      "Ġcar": 864,
      "gy": 865,
      "Ġexper": 866,
      "Ġthen": 867,
      "ef": 868,
      "Ġvery": 869,
      "Ġeven": 870,
      "Ġworld": 871,
      "cept": 872,
      "ism": 873,
      "Ġcent": 874,
      "Ġincre": 875,
      "Ġjust": 876,
      "Ġcount": 877,
      "Ġmed": 878,
      "Ġinform": 879,
      "Ġway": 880,
      "oy": 881,
      "ature": 882,
      "urn": 883,
      "Ġdet": 884,
      "Ġed": 885,
      "Ġtyp": 886,
      "get": 887,
      "ĠAmeric": 888,
      "Ġ18": 889,
      "other": 890,
      "Ġhum": 891,
      "aking": 892,
      "Ġresp": 893,
      "vent": 894,
      "ically": 895,
      "Ġsign": 896,
      "Ġsee": 897,
      "Ġgener": 898,
      "Ġthose": 899,
      "Ġvar": 900,
      "ives": 901,
      "Ġref": 902,
      "ollow": 903,
      "Ġke": 904,
      "iew": 905,
      "Ġprog": 906,
      "Ġext": 907,
      "Ġpat": 908,
      "Ġcall": 909,
      "Ġpub": 910,
      "cer": 911,
      "omm": 912,
      "Ġresult": 913,
      "ck": 914,
      "arm": 915,
      "Ġevery": 916,
      "ros": 917,
      "Ġchildren": 918,
      "ps": 919,
      "ases": 920,
      "Ġeach": 921,
      "Ġbeing": 922,
      "Ġprocess": 923,
      "Ġfact": 924,
      "ues": 925,
      "Ġloc": 926,
      "ds": 927,
      "Ġsaid": 928,
      "led": 929,
      "Ġsec": 930,
      "Ġca": 931,
      "Ġgra": 932,
      ".âĢĿ": 933,
      "iron": 934,
      "Ġsoc": 935,
      "ork": 936,
      "Ġrequ": 937,
      "ruct": 938,
      "tle": 939,
      "ages": 940,
      "Ġpartic": 941,
      "Ġimportant": 942,
      "Th": 943,
      "Ġtechn": 944,
      "ody": 945,
      "Ġset": 946,
      "ĠAl": 947,
      "Ġdist": 948,
      "io": 949,
      "Ġmuch": 950,
      "Ġlife": 951,
      "Ġmon": 952,
      "ĠWe": 953,
      "Ġart": 954,
      "Ġcommun": 955,
      "ather": 956,
      "Ġdep": 957,
      "cent": 958,
      "ved": 959,
      "Ġcre": 960,
      "Ġdef": 961,
      "Ġent": 962,
      "Ġduring": 963,
      "Ġshe": 964,
      "vern": 965,
      "Ġmy": 966,
      "ized": 967,
      "Ġfam": 968,
      "Ġinformation": 969,
      "Ġstudents": 970,
      "imes": 971,
      "Ġown": 972,
      "ward": 973,
      "Ġfollow": 974,
      "Ġfood": 975,
      "Ġread": 976,
      "ĠPro": 977,
      "Ġright": 978,
      "ĠThey": 979,
      "Ġlevel": 980,
      "Ġmade": 981,
      "ices": 982,
      "Ġsk": 983,
      "Ġlead": 984,
      "ĠRe": 985,
      "Ġsame": 986,
      "Ġaut": 987,
      "Ġdoes": 988,
      "any": 989,
      "gg": 990,
      "Ġstudy": 991,
      "Ġ6": 992,
      "ize": 993,
      "Ġproble": 994,
      "Ġfind": 995,
      "the": 996,
      "ection": 997,
      "Ġgrow": 998,
      "Ġschool": 999,
      "Ġav": 1000,
      "Ġdata": 1001,
      "hip": 1002,
      "Ġgood": 1003,
      "ted": 1004,
      "ĠIf": 1005,
      "Ġcur": 1006,
      "Ġperson": 1007,
      "ale": 1008,
      "Ġend": 1009,
      "Ġmin": 1010,
      "Ġback": 1011,
      "Ġboth": 1012,
      "onom": 1013,
      "Ġins": 1014,
      "Ġstr": 1015,
      "ĠAn": 1016,
      "Ġpop": 1017,
      "Ġdi": 1018,
      "und": 1019,
      "viron": 1020,
      "Ġche": 1021,
      ".,": 1022,
      "ĠFor": 1023,
      "Ġusing": 1024,
      "Ġgrou": 1025,
      "ĠAr": 1026,
      "Ġbefore": 1027,
      "Ġcomple": 1028,
      "Ġsmall": 1029,
      "19": 1030,
      "ality": 1031,
      "Ġshow": 1032,
      "Ġexpl": 1033,
      "Ġhist": 1034,
      "read": 1035,
      "iversity": 1036,
      "iel": 1037,
      "Ġtest": 1038,
      "ially": 1039,
      "Ġcor": 1040,
      "Ġgl": 1041,
      "stand": 1042,
      "ince": 1043,
      "||": 1044,
      "Ġbo": 1045,
      "ĠHow": 1046,
      "ined": 1047,
      "Ġagain": 1048,
      "ars": 1049,
      "Ġmain": 1050,
      "Ġtreat": 1051,
      "inal": 1052,
      "ivid": 1053,
      "omen": 1054,
      "Ġoften": 1055,
      "ock": 1056,
      "ex": 1057,
      "Ġval": 1058,
      "Ġless": 1059,
      "Ġprot": 1060,
      "000": 1061,
      "20": 1062,
      "nce": 1063,
      "imate": 1064,
      "der": 1065,
      "Ġbr": 1066,
      "ergy": 1067,
      "ĠInd": 1068,
      "rol": 1069,
      "ix": 1070,
      "ty": 1071,
      "Ġposs": 1072,
      "ished": 1073,
      "Ġsol": 1074,
      "Ġwhile": 1075,
      "ĠNew": 1076,
      "Ġtake": 1077,
      "Ġdise": 1078,
      "Ġday": 1079,
      "Ġstate": 1080,
      "ute": 1081,
      "ĠSp": 1082,
      "Ġocc": 1083,
      "ax": 1084,
      "ien": 1085,
      "Ġnow": 1086,
      "Ġlit": 1087,
      "Ġnumber": 1088,
      "Ġserv": 1089,
      "akes": 1090,
      "Ġec": 1091,
      "oh": 1092,
      "ĠSc": 1093,
      "Ġris": 1094,
      "ral": 1095,
      "vironment": 1096,
      "Ġresearch": 1097,
      "Ġmem": 1098,
      "Ġpower": 1099,
      "Ġhim": 1100,
      "Ġcell": 1101,
      "ulation": 1102,
      "ier": 1103,
      "Ġorgan": 1104,
      "Ġvis": 1105,
      "irect": 1106,
      "Ġ10": 1107,
      "Ġbody": 1108,
      "Ġprovid": 1109,
      "dition": 1110,
      "Ġactiv": 1111,
      "ury": 1112,
      "Ġfun": 1113,
      "up": 1114,
      "Ġdesign": 1115,
      "air": 1116,
      "ered": 1117,
      "Ġhuman": 1118,
      "Ġchar": 1119,
      "iving": 1120,
      "iqu": 1121,
      "iety": 1122,
      "Ġaround": 1123,
      "Ġdown": 1124,
      "Ġhand": 1125,
      "Ġbel": 1126,
      "Ġmust": 1127,
      "Ġsupport": 1128,
      "Ġthree": 1129,
      "ves": 1130,
      "Ġclass": 1131,
      "ah": 1132,
      "ters": 1133,
      "Ġredu": 1134,
      "hers": 1135,
      "ium": 1136,
      "Ġcommon": 1137,
      "Ġest": 1138,
      "ven": 1139,
      "ger": 1140,
      "Ġlook": 1141,
      "aj": 1142,
      "ave": 1143,
      "uss": 1144,
      "Ġplan": 1145,
      "Ġconf": 1146,
      "Ġstart": 1147,
      "Ġ7": 1148,
      "Ġpoint": 1149,
      "rent": 1150,
      "Ġgreat": 1151,
      "day": 1152,
      "ital": 1153,
      "Ġcle": 1154,
      "Ġland": 1155,
      "âĢĶ": 1156,
      "Ġdid": 1157,
      "Ġelect": 1158,
      "Ġlarge": 1159,
      "ĠBut": 1160,
      "Ġgovern": 1161,
      "ains": 1162,
      "cl": 1163,
      "This": 1164,
      "Ġser": 1165,
      "ving": 1166,
      "Ġreport": 1167,
      "acter": 1168,
      "Ġexample": 1169,
      "self": 1170,
      "gen": 1171,
      "ross": 1172,
      "ouse": 1173,
      "orn": 1174,
      "rain": 1175,
      "Ġcontin": 1176,
      "ee": 1177,
      "Ġcare": 1178,
      "ron": 1179,
      "ull": 1180,
      "com": 1181,
      "ĠIs": 1182,
      "Ġ8": 1183,
      "Ġop": 1184,
      "itions": 1185,
      "ional": 1186,
      "Ġincluding": 1187,
      "Ġallow": 1188,
      "ĠYou": 1189,
      "ared": 1190,
      ",âĢĿ": 1191,
      "ash": 1192,
      "Ġconst": 1193,
      "Ġthough": 1194,
      "anc": 1195,
      "ĠThere": 1196,
      "Ġret": 1197,
      "Ġadv": 1198,
      "Ġcalled": 1199,
      "iver": 1200,
      "Ġmet": 1201,
      "Ġwrit": 1202,
      "way": 1203,
      "Ġbuild": 1204,
      "Ġeduc": 1205,
      "Ġcour": 1206,
      "Ġequ": 1207,
      "eg": 1208,
      "Ġunderstand": 1209,
      "aterial": 1210,
      "Ġdr": 1211,
      "Ġknown": 1212,
      "outh": 1213,
      "Ġsom": 1214,
      "esp": 1215,
      "...": 1216,
      "iven": 1217,
      "Ġpublic": 1218,
      "Ġstill": 1219,
      "ner": 1220,
      "10": 1221,
      "Ġbeh": 1222,
      "inc": 1223,
      "ĠAnd": 1224,
      "ired": 1225,
      "Ġpract": 1226,
      "els": 1227,
      "osed": 1228,
      "iod": 1229,
      "Ġeas": 1230,
      "reen": 1231,
      "Ġ9": 1232,
      ".\"": 1233,
      "âĢĵ": 1234,
      "oci": 1235,
      "ries": 1236,
      "ividual": 1237,
      "oms": 1238,
      "Ġthink": 1239,
      "ids": 1240,
      "Ġgu": 1241,
      "ĠâĢĺ": 1242,
      "Ġappro": 1243,
      "Ġplace": 1244,
      "Ġquest": 1245,
      "Ġide": 1246,
      "ected": 1247,
      "erest": 1248,
      "de": 1249,
      "Ġmight": 1250,
      "Ġmat": 1251,
      "ential": 1252,
      "Ġfew": 1253,
      "Ġ199": 1254,
      "ources": 1255,
      "ization": 1256,
      "lish": 1257,
      "itive": 1258,
      "ination": 1259,
      "ank": 1260,
      "ĠThese": 1261,
      "Ġstand": 1262,
      "bers": 1263,
      "Ġpresent": 1264,
      "Ġchang": 1265,
      "Ġcaus": 1266,
      "ĠWh": 1267,
      "ering": 1268,
      "raph": 1269,
      "Ġtem": 1270,
      "Ġenergy": 1271,
      "Ġenvironment": 1272,
      "âĢľ": 1273,
      "Ġchange": 1274,
      "Ġwant": 1275,
      "ption": 1276,
      "Ġwithout": 1277,
      "Ġdem": 1278,
      "Ġpur": 1279,
      "eng": 1280,
      "Ġwithin": 1281,
      "Ġproduct": 1282,
      "oun": 1283,
      "tt": 1284,
      "ense": 1285,
      "ration": 1286,
      "me": 1287,
      "ording": 1288,
      "ĠEng": 1289,
      "ior": 1290,
      "Ġdevelopment": 1291,
      "angu": 1292,
      "Ġiss": 1293,
      "ffic": 1294,
      "ived": 1295,
      "Ġlight": 1296,
      "ason": 1297,
      "Ġmaterial": 1298,
      "Ġphys": 1299,
      "ertain": 1300,
      "Ġsym": 1301,
      "ĠDe": 1302,
      "ethod": 1303,
      "ĠUniversity": 1304,
      "Ġindividual": 1305,
      "Ġair": 1306,
      "Ġproject": 1307,
      "agn": 1308,
      "Ġlearn": 1309,
      "man": 1310,
      "Ġcap": 1311,
      "Ġimpro": 1312,
      "less": 1313,
      "Ġident": 1314,
      "eral": 1315,
      "arent": 1316,
      "Ġdisease": 1317,
      "line": 1318,
      "ĠAmerican": 1319,
      "Ġimm": 1320,
      "Ġdirect": 1321,
      "Ġdon": 1322,
      "ets": 1323,
      "ton": 1324,
      "alk": 1325,
      "Ġplay": 1326,
      "Ġsl": 1327,
      "Ġprof": 1328,
      "Ġbre": 1329,
      "bs": 1330,
      "ians": 1331,
      "Ġarea": 1332,
      "Ġpot": 1333,
      "Ġben": 1334,
      "orth": 1335,
      "Ġsit": 1336,
      "Ġanother": 1337,
      "Ġpos": 1338,
      "Ġve": 1339,
      "iness": 1340,
      "illion": 1341,
      "Ġpass": 1342,
      "ental": 1343,
      "Ġmeas": 1344,
      "Ġblood": 1345,
      "ological": 1346,
      "ield": 1347,
      "ajor": 1348,
      "ability": 1349,
      "Ġwomen": 1350,
      "Ġbelie": 1351,
      "ified": 1352,
      "Ġeng": 1353,
      "ĠCon": 1354,
      "Ġinclude": 1355,
      "Ġlaw": 1356,
      "Ġ&": 1357,
      "Ġbest": 1358,
      "pr": 1359,
      "Ġhome": 1360,
      "Ġsocial": 1361,
      "ug": 1362,
      "Ġant": 1363,
      "'t": 1364,
      "atural": 1365,
      "Ġinterest": 1366,
      "ained": 1367,
      "Ġet": 1368,
      "erc": 1369,
      "Ġmus": 1370,
      "rodu": 1371,
      "It": 1372,
      "Ġbas": 1373,
      "Ġcult": 1374,
      "ccess": 1375,
      "Ġrisk": 1376,
      "Ġdesc": 1377,
      "ify": 1378,
      "Ġrest": 1379,
      "Ġpain": 1380,
      "ently": 1381,
      "Ġsever": 1382,
      "ĠAd": 1383,
      "Ġanal": 1384,
      "Ġcontrol": 1385,
      "atic": 1386,
      "Ġmark": 1387,
      "Ġprogram": 1388,
      "az": 1389,
      "Ġopp": 1390,
      "Ġold": 1391,
      "Ġbecome": 1392,
      "ats": 1393,
      "ource": 1394,
      "hor": 1395,
      "Ġearly": 1396,
      "Ġlow": 1397,
      "ĠPh": 1398,
      "Ġproper": 1399,
      "Ġeconom": 1400,
      "Ġbetter": 1401,
      "gin": 1402,
      "ĠHowever": 1403,
      "Ġleg": 1404,
      "Ġmethod": 1405,
      "Ġanim": 1406,
      "here": 1407,
      "ways": 1408,
      "ik": 1409,
      "ision": 1410,
      "Ġhere": 1411,
      "Ġgovernment": 1412,
      "Ġmil": 1413,
      "lished": 1414,
      "Ġwar": 1415,
      "ern": 1416,
      "ining": 1417,
      "Ġagainst": 1418,
      "arc": 1419,
      "Ġmove": 1420,
      "Ġlast": 1421,
      "ĠSh": 1422,
      "Ġpar": 1423,
      "Ġfore": 1424,
      "to": 1425,
      "rist": 1426,
      "Ġsecond": 1427,
      "str": 1428,
      "ills": 1429,
      "Ġreal": 1430,
      "Ġtre": 1431,
      "ware": 1432,
      "Ġkeep": 1433,
      "Ġtoo": 1434,
      "Ġoper": 1435,
      "Ġorder": 1436,
      "eed": 1437,
      "ead": 1438,
      "ission": 1439,
      "Ġavail": 1440,
      "Ġcause": 1441,
      "Ġoccur": 1442,
      "Ġprovide": 1443,
      "ider": 1444,
      "Ġmajor": 1445,
      "ients": 1446,
      "amp": 1447,
      "ards": 1448,
      "Ġter": 1449,
      "lu": 1450,
      "Ġmeans": 1451,
      "Ġgroup": 1452,
      "ories": 1453,
      "ĠUnited": 1454,
      "icle": 1455,
      "Ġele": 1456,
      "Ġhistory": 1457,
      "ention": 1458,
      "view": 1459,
      "rap": 1460,
      "ĠRes": 1461,
      "Ġparticular": 1462,
      "Ġpossible": 1463,
      "Ġfamily": 1464,
      "Ġspecies": 1465,
      "Ġseveral": 1466,
      "ĠCl": 1467,
      "Ġtop": 1468,
      "Ġindu": 1469,
      "Ġperform": 1470,
      "Ġdev": 1471,
      "Ġcurrent": 1472,
      "ples": 1473,
      "Ġunt": 1474,
      "use": 1475,
      "ograph": 1476,
      "Ġpercent": 1477,
      "Ġaddition": 1478,
      "Ġsay": 1479,
      "Ġlangu": 1480,
      "Ġperiod": 1481,
      "Ġnear": 1482,
      "Ġinvol": 1483,
      "ote": 1484,
      "Ġ15": 1485,
      "ised": 1486,
      "par": 1487,
      "ĠEx": 1488,
      "Ġ[": 1489,
      "Ġhig": 1490,
      "Ġorig": 1491,
      "Ġfin": 1492,
      "oid": 1493,
      "Ġlearning": 1494,
      "ĠCol": 1495,
      "Ġable": 1496,
      "ina": 1497,
      "ĠâĢĶ": 1498,
      "Ġmen": 1499,
      "Ġmean": 1500,
      "sy": 1501,
      "pect": 1502,
      "ĠWhen": 1503,
      "Ġsaf": 1504,
      "Ġscient": 1505,
      "irc": 1506,
      "Ġhapp": 1507,
      "ĠGod": 1508,
      "ogn": 1509,
      "Ġbenef": 1510,
      "Ġ.": 1511,
      "Ġnon": 1512,
      "ĠPl": 1513,
      "Ġopen": 1514,
      "Ġsince": 1515,
      "Ġbus": 1516,
      "Ġlim": 1517,
      "urop": 1518,
      "Ġprom": 1519,
      "idence": 1520,
      "Ġcr": 1521,
      "Ġthings": 1522,
      "Ġaffect": 1523,
      "Ġcost": 1524,
      "Ġel": 1525,
      "Ġsignific": 1526,
      "Ġareas": 1527,
      "Ġcal": 1528,
      "Ġplant": 1529,
      "ĠCan": 1530,
      "br": 1531,
      "ĠTo": 1532,
      "ator": 1533,
      "Ġamong": 1534,
      "osp": 1535,
      "though": 1536,
      "ret": 1537,
      "ane": 1538,
      "of": 1539,
      "ole": 1540,
      ",\"": 1541,
      "Ġfeel": 1542,
      "ĠStates": 1543,
      "ilar": 1544,
      "Ġothers": 1545,
      "Ġmar": 1546,
      "Ġsays": 1547,
      "ĠSe": 1548,
      "ended": 1549,
      "port": 1550,
      "Ġavailable": 1551,
      "Ġcountry": 1552,
      "What": 1553,
      "ww": 1554,
      "Ġtreatment": 1555,
      "Ġname": 1556,
      "ĠZ": 1557,
      "ĠComm": 1558,
      "Ġbased": 1559,
      "ĠQ": 1560,
      "ames": 1561,
      "Ġfollowing": 1562,
      "omp": 1563,
      "ots": 1564,
      "ends": 1565,
      "Ġfour": 1566,
      "sc": 1567,
      "Ġfre": 1568,
      "ling": 1569,
      "Ġhead": 1570,
      "ably": 1571,
      "Ġtimes": 1572,
      "Ġcase": 1573,
      "Ġprevent": 1574,
      "Ġdel": 1575,
      "Ġfac": 1576,
      "ocus": 1577,
      "Ġcond": 1578,
      "urther": 1579,
      "ances": 1580,
      "Ġwee": 1581,
      "Ġmonth": 1582,
      "Ġaccess": 1583,
      "elf": 1584,
      "cing": 1585,
      "une": 1586,
      "ĠAt": 1587,
      "Ġcome": 1588,
      "Ġcertain": 1589,
      "Ġage": 1590,
      "Ġobject": 1591,
      "Ġfree": 1592,
      "Ġ17": 1593,
      "Ġpost": 1594,
      "ploy": 1595,
      "Ġlist": 1596,
      "Ġview": 1597,
      "Ġlab": 1598,
      "urope": 1599,
      "oint": 1600,
      "Ġproblem": 1601,
      "Ġpress": 1602,
      "Ġstruct": 1603,
      "Ġbi": 1604,
      "Ġrece": 1605,
      "olution": 1606,
      "Ġnatural": 1607,
      "Ġlo": 1608,
      "Ġlocal": 1609,
      "Ġtype": 1610,
      "ression": 1611,
      "Ġrun": 1612,
      "be": 1613,
      "hy": 1614,
      "Ġsuccess": 1615,
      "Ġconn": 1616,
      "aper": 1617,
      "We": 1618,
      "Ġproblems": 1619,
      "Ġput": 1620,
      "ope": 1621,
      "Ġbro": 1622,
      "Ġvol": 1623,
      "Ġ12": 1624,
      "ones": 1625,
      "ĠEn": 1626,
      "Ġgr": 1627,
      "Ġlittle": 1628,
      "Ġcreat": 1629,
      "Ġintern": 1630,
      "icult": 1631,
      "ĠCent": 1632,
      "resent": 1633,
      "Ġhard": 1634,
      "Ġlevels": 1635,
      "Ġbir": 1636,
      "If": 1637,
      "stit": 1638,
      "Ġcells": 1639,
      "Ġamount": 1640,
      "ĠNational": 1641,
      "As": 1642,
      "12": 1643,
      "ggest": 1644,
      "Ġassoci": 1645,
      "Ġbook": 1646,
      "18": 1647,
      "Ġyoung": 1648,
      "work": 1649,
      "ither": 1650,
      "Ġuntil": 1651,
      "Ġfar": 1652,
      "por": 1653,
      "Ġlater": 1654,
      "atory": 1655,
      "ething": 1656,
      "Ġsignificant": 1657,
      "ĠTe": 1658,
      "Ġflow": 1659,
      "Ġmult": 1660,
      "ĠAf": 1661,
      "ĠEurope": 1662,
      "oks": 1663,
      "Ġlet": 1664,
      "Ġgiven": 1665,
      "ately": 1666,
      "Ġimpact": 1667,
      "Ġess": 1668,
      "ides": 1669,
      "ledge": 1670,
      "Ġturn": 1671,
      "ĠChrist": 1672,
      "Ġmaking": 1673,
      "Ġsw": 1674,
      "Ġdue": 1675,
      "ged": 1676,
      "ured": 1677,
      "ĠFr": 1678,
      "not": 1679,
      "uture": 1680,
      "ortun": 1681,
      "Ġrad": 1682,
      "Ġshort": 1683,
      "Ġvir": 1684,
      "Ġcomput": 1685,
      "Ġdeterm": 1686,
      "Ġheart": 1687,
      "Ġsuggest": 1688,
      "hem": 1689,
      "Ġfocus": 1690,
      "Ġseem": 1691,
      "ĠBe": 1692,
      "aps": 1693,
      "aken": 1694,
      "Ġcho": 1695,
      "Ġbehav": 1696,
      "ication": 1697,
      "ĠOr": 1698,
      "Ġ0": 1699,
      "Ġfunction": 1700,
      "over": 1701,
      "cle": 1702,
      "Ġeducation": 1703,
      "Ġlikely": 1704,
      "Ġdays": 1705,
      "Ġhy": 1706,
      "face": 1707,
      "Ġinvest": 1708,
      "Ġfil": 1709,
      "Ġobs": 1710,
      "Ġsystems": 1711,
      "Ġalong": 1712,
      "Ġpolit": 1713,
      "ĠAll": 1714,
      "Ġcomb": 1715,
      "ĠUS": 1716,
      "Ġappear": 1717,
      "agement": 1718,
      "ĠWhat": 1719,
      "ĠOn": 1720,
      "Ġcirc": 1721,
      "Ġcommunity": 1722,
      "Ġlanguage": 1723,
      "Ġincrease": 1724,
      "Ġusually": 1725,
      "Ġsomething": 1726,
      "orld": 1727,
      "Ġdra": 1728,
      "Ġcourse": 1729,
      "ohn": 1730,
      "ending": 1731,
      "isc": 1732,
      "Ġ16": 1733,
      "Ġsing": 1734,
      "ried": 1735,
      "Ġteac": 1736,
      "Ġalways": 1737,
      "vious": 1738,
      "Ġdeath": 1739,
      "Ġresults": 1740,
      "aster": 1741,
      "Ġauthor": 1742,
      "Ġpast": 1743,
      "ecially": 1744,
      "Ġrele": 1745,
      "Ġdifficult": 1746,
      "ring": 1747,
      "ape": 1748,
      "Ġtechnology": 1749,
      "Ġclear": 1750,
      "Ġexist": 1751,
      "Ġconsum": 1752,
      "Ġspecific": 1753,
      "Ġ$": 1754,
      "ĠMed": 1755,
      "ann": 1756,
      "Ġsimilar": 1757,
      "etic": 1758,
      "ators": 1759,
      "af": 1760,
      "Ġtemper": 1761,
      "Ġpopulation": 1762,
      "Ġwords": 1763,
      "Ġparent": 1764,
      "Ġenc": 1765,
      "__": 1766,
      "50": 1767,
      "11": 1768,
      "Ġcreate": 1769,
      "Ġgive": 1770,
      "ember": 1771,
      "Ġspace": 1772,
      "Ġbrain": 1773,
      "Ġtoday": 1774,
      "Ġexperience": 1775,
      "Ġmillion": 1776,
      "Ġrecord": 1777,
      "asing": 1778,
      "Ġill": 1779,
      "min": 1780,
      "ler": 1781,
      "Ġcharacter": 1782,
      "ptoms": 1783,
      "Ġcentury": 1784,
      "Ġconditions": 1785,
      "There": 1786,
      "Ġ'": 1787,
      "Ġneeds": 1788,
      "Ġdescrib": 1789,
      "Ġey": 1790,
      "idd": 1791,
      "Ġcancer": 1792,
      "Ġspecial": 1793,
      "Ġabove": 1794,
      "ours": 1795,
      "ĠSo": 1796,
      "mit": 1797,
      "especially": 1798,
      "ively": 1799,
      "ruction": 1800,
      "Ġline": 1801,
      "rug": 1802,
      "iation": 1803,
      "Ġdam": 1804,
      "app": 1805,
      "Ġwhy": 1806,
      "aining": 1807,
      "How": 1808,
      "Ġdiscuss": 1809,
      "Ġbegin": 1810,
      "ored": 1811,
      "ox": 1812,
      "Ġfuture": 1813,
      "Ġnext": 1814,
      "Ġnecess": 1815,
      "Ġcrit": 1816,
      "Ġchanges": 1817,
      "Ġer": 1818,
      "Ġhowever": 1819,
      "Ġhigher": 1820,
      "obal": 1821,
      "Ġprop": 1822,
      "ribut": 1823,
      "ĠBrit": 1824,
      "ĠAfric": 1825,
      "Ġapplic": 1826,
      "Ġleast": 1827,
      "Ġvarious": 1828,
      "Ġcountries": 1829,
      "Ġestab": 1830,
      "Ġprofess": 1831,
      "Ġgre": 1832,
      "Ġtoget": 1833,
      "Ġtogether": 1834,
      "most": 1835,
      "orts": 1836,
      "Ġside": 1837,
      "Ġmov": 1838,
      "Ġtry": 1839,
      "Ġstrong": 1840,
      "Ġworks": 1841,
      "ĠEar": 1842,
      "ique": 1843,
      "Ġask": 1844,
      "ilities": 1845,
      "Ġacross": 1846,
      "St": 1847,
      "Ġrequire": 1848,
      "ison": 1849,
      "ĠBl": 1850,
      "Ġnever": 1851,
      "ray": 1852,
      "Ġleft": 1853,
      "selves": 1854,
      "Ġrespons": 1855,
      "Ġcomplete": 1856,
      "nal": 1857,
      "Ġbusiness": 1858,
      "oney": 1859,
      "aves": 1860,
      "ode": 1861,
      "Ġkind": 1862,
      "atch": 1863,
      "by": 1864,
      "Ġimprove": 1865,
      "ateg": 1866,
      "Ġplants": 1867,
      "Ġworking": 1868,
      "Ġenough": 1869,
      "Ġcolle": 1870,
      "Ġaway": 1871,
      "Ġeffects": 1872,
      "omes": 1873,
      "ĠSy": 1874,
      "Ġmot": 1875,
      "Ġways": 1876,
      "sp": 1877,
      "Ġresearc": 1878,
      "Ġcy": 1879,
      "amm": 1880,
      "Ġespecially": 1881,
      "Ġtool": 1882,
      "Ġsens": 1883,
      "sw": 1884,
      "Ġpatients": 1885,
      "ilt": 1886,
      "Ġterm": 1887,
      "Ġplac": 1888,
      "Ġtru": 1889,
      "Ġgeneral": 1890,
      "for": 1891,
      "Ġprim": 1892,
      "alf": 1893,
      "ales": 1894,
      "acy": 1895,
      "Ġfull": 1896,
      "ysis": 1897,
      "let": 1898,
      "Ġ198": 1899,
      "Ġchem": 1900,
      "Ġstudies": 1901,
      "ĠLe": 1902,
      "thing": 1903,
      "Ġnet": 1904,
      "aring": 1905,
      "ĠGerm": 1906,
      "oot": 1907,
      "Ġcases": 1908,
      "Ġhaving": 1909,
      "ument": 1910,
      "acc": 1911,
      "Ġsubject": 1912,
      "NA": 1913,
      "duct": 1914,
      "oman": 1915,
      "aching": 1916,
      "Ġkey": 1917,
      "lement": 1918,
      "Ġinflu": 1919,
      "ĠWar": 1920,
      "Ġbecame": 1921,
      "iting": 1922,
      "Ġconsider": 1923,
      "ĠJohn": 1924,
      "Ġteam": 1925,
      "//": 1926,
      "ipp": 1927,
      "ires": 1928,
      "ley": 1929,
      "Ġtypes": 1930,
      "aim": 1931,
      "side": 1932,
      "Ġwhether": 1933,
      "ned": 1934,
      "Ġgoing": 1935,
      "ges": 1936,
      "chie": 1937,
      "Ġnorm": 1938,
      "Ġknowledge": 1939,
      "ued": 1940,
      "ush": 1941,
      "Ġrelations": 1942,
      "Ġz": 1943,
      "Ġaccount": 1944,
      "Ġrepresent": 1945,
      "istic": 1946,
      "apt": 1947,
      "Ġsymptoms": 1948,
      "An": 1949,
      "Ġstep": 1950,
      "Ġconcer": 1951,
      "ott": 1952,
      "Ġlower": 1953,
      "ĠSome": 1954,
      "ency": 1955,
      "Ġcity": 1956,
      "Ġprotect": 1957,
      "Ġpred": 1958,
      "Ġreason": 1959,
      "Ġfurther": 1960,
      "Ġground": 1961,
      "Ġmind": 1962,
      "itor": 1963,
      "Ġphysical": 1964,
      "ising": 1965,
      "Ġmakes": 1966,
      "Ġscience": 1967,
      "ready": 1968,
      "Ġopt": 1969,
      "ification": 1970,
      "Ġhouse": 1971,
      "Ġpolic": 1972,
      "ung": 1973,
      "ery": 1974,
      "ĠGen": 1975,
      "ĠEnglish": 1976,
      "Ġrole": 1977,
      "ites": 1978,
      "Ġproduction": 1979,
      "Ġself": 1980,
      "For": 1981,
      "200": 1982,
      "Ġtext": 1983,
      "://": 1984,
      "ĠWorld": 1985,
      "30": 1986,
      "Ġsum": 1987,
      "sych": 1988,
      "Ġbig": 1989,
      "ables": 1990,
      "edi": 1991,
      "ae": 1992,
      "atures": 1993,
      "Ġfund": 1994,
      "Ġ30": 1995,
      "erence": 1996,
      "Ġquestion": 1997,
      "ird": 1998,
      "Ġrange": 1999,
      "ĠWith": 2000,
      "icro": 2001,
      "Ġsure": 2002,
      "aut": 2003,
      "bon": 2004,
      "Ġlive": 2005,
      "ĠOne": 2006,
      "lo": 2007,
      "Ġactivity": 2008,
      "Ġeff": 2009,
      "Ġindic": 2010,
      "15": 2011,
      "Ġvalue": 2012,
      "ĠGo": 2013,
      "Ġchall": 2014,
      "mber": 2015,
      "Ġtoward": 2016,
      "ibility": 2017,
      "Ġseen": 2018,
      "cul": 2019,
      "Ġmodel": 2020,
      "urch": 2021,
      "verage": 2022,
      "Ġgroups": 2023,
      "Ġdig": 2024,
      "ream": 2025,
      "Ġactivities": 2026,
      "Ġwr": 2027,
      "etimes": 2028,
      "rel": 2029,
      "ĠIntern": 2030,
      "Ġparticip": 2031,
      "16": 2032,
      "Ġnut": 2033,
      "Ġalready": 2034,
      "iol": 2035,
      "ĠHealth": 2036,
      "Ġloss": 2037,
      "Ġens": 2038,
      "Ġreally": 2039,
      "esc": 2040,
      "Ġgrowth": 2041,
      "Ġwind": 2042,
      "augh": 2043,
      "Ġdone": 2044,
      "Ġfall": 2045,
      "Ġresources": 2046,
      "Ġoffic": 2047,
      "ĠThat": 2048,
      "Ġstat": 2049,
      "ands": 2050,
      "Ġemploy": 2051,
      "Ġ14": 2052,
      "Ġdeveloped": 2053,
      "ĠCar": 2054,
      "Ġclose": 2055,
      "Ġrather": 2056,
      "Ġbelow": 2057,
      "Ġproducts": 2058,
      "unt": 2059,
      "Ġeither": 2060,
      "Ġarticle": 2061,
      "Ġlot": 2062,
      "uation": 2063,
      "osis": 2064,
      "Ġquality": 2065,
      "Ġsite": 2066,
      "iple": 2067,
      "iam": 2068,
      "Ġstory": 2069,
      "Ġpotential": 2070,
      "Ġfield": 2071,
      "Ġword": 2072,
      "oura": 2073,
      "Ġpaper": 2074,
      "ils": 2075,
      "overed": 2076,
      "Ġrecogn": 2077,
      "Ġflu": 2078,
      "Ġdeg": 2079,
      "fact": 2080,
      "Ġbat": 2081,
      "Ġnational": 2082,
      "Ġachie": 2083,
      "ĠMar": 2084,
      "Ġneg": 2085,
      "Ġprob": 2086,
      "Ġur": 2087,
      "Ġdiet": 2088,
      "Ġmass": 2089,
      "Ġaccording": 2090,
      "Ġsingle": 2091,
      "Ġphot": 2092,
      "idered": 2093,
      "Ġclimate": 2094,
      "earch": 2095,
      "Ġtradition": 2096,
      "ival": 2097,
      "ĠAm": 2098,
      "rams": 2099,
      "Ġsource": 2100,
      "ĠGe": 2101,
      "Ġdrug": 2102,
      "17": 2103,
      "Ġreduce": 2104,
      "Ġobserv": 2105,
      "Ġabs": 2106,
      "ĠCal": 2107,
      "Ġevent": 2108,
      "ER": 2109,
      "ĠPr": 2110,
      "Ġindust": 2111,
      "Ġsurface": 2112,
      "Ġbuilding": 2113,
      "put": 2114,
      "amin": 2115,
      "rict": 2116,
      "Ġtaken": 2117,
      "Ġrate": 2118,
      "ĠTr": 2119,
      "ĠNorth": 2120,
      "13": 2121,
      "14": 2122,
      "ĠAmerica": 2123,
      "Ġfive": 2124,
      "Ġinit": 2125,
      "ĠDr": 2126,
      "Ġskills": 2127,
      "Ġconcept": 2128,
      "Ġred": 2129,
      "ĠIm": 2130,
      "ublic": 2131,
      "Ġwhite": 2132,
      "eter": 2133,
      "Ġissues": 2134,
      "ivil": 2135,
      "Ġmeet": 2136,
      "Ġonce": 2137,
      "Ġwhole": 2138,
      "Ġmembers": 2139,
      "Ġupon": 2140,
      "ĠAb": 2141,
      "Ġevidence": 2142,
      "Ġfr": 2143,
      "ĠShe": 2144,
      "Ġtot": 2145,
      "Ġmedical": 2146,
      "Ġconsidered": 2147,
      "Ġdoct": 2148,
      "val": 2149,
      "Ġcollect": 2150,
      "ask": 2151,
      "rect": 2152,
      "ĠSouth": 2153,
      "ivity": 2154,
      "When": 2155,
      "Ġfrequ": 2156,
      "Ġfail": 2157,
      "ĠMay": 2158,
      "fficient": 2159,
      "Ġann": 2160,
      "ule": 2161,
      "Ġrecomm": 2162,
      "fer": 2163,
      "Ġresearchers": 2164,
      "leep": 2165,
      "urity": 2166,
      "Ġaddress": 2167,
      "Ġdetail": 2168,
      "Ġrelig": 2169,
      "Ġsize": 2170,
      "Ġpressure": 2171,
      "reg": 2172,
      "reme": 2173,
      "Ġcreated": 2174,
      "Ġdom": 2175,
      "Ġsun": 2176,
      "ips": 2177,
      "Ġcut": 2178,
      "ym": 2179,
      "Ġthemselves": 2180,
      "Ġwide": 2181,
      "Ġcame": 2182,
      "org": 2183,
      "Ġreturn": 2184,
      "Ġquestions": 2185,
      "epend": 2186,
      "oph": 2187,
      "Ġliving": 2188,
      "Ġdest": 2189,
      "Ġrepl": 2190,
      "Ġsent": 2191,
      "Ġsound": 2192,
      "Ġnature": 2193,
      "ĠStud": 2194,
      "Ġ=": 2195,
      "eb": 2196,
      "roll": 2197,
      "ibr": 2198,
      "Ġassociated": 2199,
      "illed": 2200,
      "Ġintrodu": 2201,
      "ournal": 2202,
      "Ġincreased": 2203,
      "Ġtell": 2204,
      "ĠBy": 2205,
      "Ġcannot": 2206,
      "Ġfri": 2207,
      "Ġhold": 2208,
      "ights": 2209,
      "Ġpay": 2210,
      "ober": 2211,
      "Ġsal": 2212,
      "Ġskin": 2213,
      "Ġanimals": 2214,
      "ety": 2215,
      "Ġver": 2216,
      "Ġ197": 2217,
      "utions": 2218,
      "ĠAss": 2219,
      "Ġhistor": 2220,
      "Ġpolitical": 2221,
      "Ġmarket": 2222,
      "Ġrequired": 2223,
      "Ġpractice": 2224,
      "like": 2225,
      "Ġsimple": 2226,
      "Ġstates": 2227,
      "Ġlay": 2228,
      "ĠRep": 2229,
      "Ġadult": 2230,
      "Ġactually": 2231,
      "Ġthought": 2232,
      "yn": 2233,
      "itud": 2234,
      "enn": 2235,
      "oon": 2236,
      "sequ": 2237,
      "Ġrelated": 2238,
      "Ġweek": 2239,
      "sh": 2240,
      "Ch": 2241,
      "Ġentire": 2242,
      "Ġneeded": 2243,
      "Ġopportun": 2244,
      "Ġunderstanding": 2245,
      "Ġstress": 2246,
      "Ġ13": 2247,
      "Ġblack": 2248,
      "artment": 2249,
      "Ġeffective": 2250,
      "Ġability": 2251,
      "Ġengine": 2252,
      "Ġmaterials": 2253,
      "Ġprote": 2254,
      "ĠAust": 2255,
      "Ġfish": 2256,
      "Ġpurp": 2257,
      "Ġstudent": 2258,
      "Ġpublished": 2259,
      "ications": 2260,
      "ĠMan": 2261,
      ".)": 2262,
      "Ġquick": 2263,
      "Ġcomplex": 2264,
      "Ġfamil": 2265,
      "Ġhtt": 2266,
      "Ġeconomic": 2267,
      "SA": 2268,
      "Ġdoc": 2269,
      "Ġhealthy": 2270,
      "Ġspe": 2271,
      "Ġitself": 2272,
      "Ġrelationship": 2273,
      "olic": 2274,
      "ĠSoc": 2275,
      "ening": 2276,
      "Ġglobal": 2277,
      "ĠYork": 2278,
      "Ġparts": 2279,
      "Ġmaint": 2280,
      "Ġidea": 2281,
      "Ġfat": 2282,
      "Ġport": 2283,
      "Ġalmost": 2284,
      "Ġarg": 2285,
      "ened": 2286,
      "Ġcondition": 2287,
      "pro": 2288,
      "hib": 2289,
      "Ġfeed": 2290,
      "Ġmodern": 2291,
      "--": 2292,
      "Ġvers": 2293,
      "Ġprovides": 2294,
      "aging": 2295,
      "ump": 2296,
      "Ġrights": 2297,
      "ging": 2298,
      "Ġansw": 2299,
      "aged": 2300,
      "ĠEarth": 2301,
      "acks": 2302,
      "Al": 2303,
      "Ġcomes": 2304,
      "lying": 2305,
      "Ġdog": 2306,
      "Ġoil": 2307,
      "oses": 2308,
      "ai": 2309,
      "erve": 2310,
      "Ġmoney": 2311,
      "Ġservices": 2312,
      "Ġassess": 2313,
      "vere": 2314,
      "ores": 2315,
      "go": 2316,
      "ĠAct": 2317,
      "rad": 2318,
      "mb": 2319,
      "uel": 2320,
      "Ġmor": 2321,
      "hing": 2322,
      "Ġavoid": 2323,
      "Ġcat": 2324,
      "To": 2325,
      "itary": 2326,
      "ney": 2327,
      "yl": 2328,
      "chan": 2329,
      "Ġfactors": 2330,
      "ĠDep": 2331,
      "Ġhalf": 2332,
      "Ġmonths": 2333,
      "Ġgas": 2334,
      "Ġexperien": 2335,
      "):": 2336,
      "Ġmeasure": 2337,
      "Ġnecessary": 2338,
      "Ġreact": 2339,
      "Ġexerc": 2340,
      "Ġcoll": 2341,
      "gest": 2342,
      "Ġmanagement": 2343,
      "Ġweight": 2344,
      "bo": 2345,
      "ĠState": 2346,
      "ises": 2347,
      "Ġparents": 2348,
      "Ġgreen": 2349,
      "Ġsuper": 2350,
      "ĠX": 2351,
      "Ġtook": 2352,
      "Ġproduce": 2353,
      "Ġsuff": 2354,
      "Ġbegan": 2355,
      "rown": 2356,
      "Ġarch": 2357,
      "Ġarr": 2358,
      "ensive": 2359,
      "Ġbar": 2360,
      "Ġlink": 2361,
      "urs": 2362,
      "ĠHis": 2363,
      "Ġpath": 2364,
      "Ġapproach": 2365,
      "oll": 2366,
      "Ġ100": 2367,
      "ĠComp": 2368,
      "ply": 2369,
      "abor": 2370,
      "my": 2371,
      "ese": 2372,
      "Ġanalysis": 2373,
      "ĠGu": 2374,
      "usion": 2375,
      "ences": 2376,
      "cient": 2377,
      "Ġpriv": 2378,
      "Ġcop": 2379,
      "Ġsam": 2380,
      "Ġsoft": 2381,
      "Ġever": 2382,
      "Ġcolor": 2383,
      "ĠJew": 2384,
      "ĠHist": 2385,
      "Ġyet": 2386,
      "based": 2387,
      "You": 2388,
      "Ġconduct": 2389,
      "Ġprinc": 2390,
      "Ġ|": 2391,
      "Ġsoil": 2392,
      "onse": 2393,
      "iction": 2394,
      "Wh": 2395,
      "abit": 2396,
      "Ġtar": 2397,
      "ma": 2398,
      "Ġregion": 2399,
      "Ġcomputer": 2400,
      "\".": 2401,
      "apan": 2402,
      "Ġge": 2403,
      "izing": 2404,
      "utes": 2405,
      "Ġ196": 2406,
      "ume": 2407,
      "iddle": 2408,
      "Ġliter": 2409,
      "Ġjob": 2410,
      "ĠNe": 2411,
      "Ġsepar": 2412,
      "Ġpattern": 2413,
      "Ġemer": 2414,
      "Ġthroughout": 2415,
      "Ġclaim": 2416,
      "Ġchemical": 2417,
      "Ġpopular": 2418,
      "Ġstop": 2419,
      "inter": 2420,
      "empt": 2421,
      "nces": 2422,
      "Ġreading": 2423,
      "ript": 2424,
      "Ġfarm": 2425,
      "ĠCont": 2426,
      "Ġregard": 2427,
      "ze": 2428,
      "ĠDo": 2429,
      "estern": 2430,
      "irm": 2431,
      "Ġbur": 2432,
      "Ġincreasing": 2433,
      "ĠBritish": 2434,
      "ĠCo": 2435,
      "eds": 2436,
      "Ġtaking": 2437,
      "uck": 2438,
      "Ġpersonal": 2439,
      "Ġaction": 2440,
      "igure": 2441,
      "Ġrul": 2442,
      "Ġbuilt": 2443,
      "Ġsense": 2444,
      "pid": 2445,
      "Ġrecent": 2446,
      "Ġ50": 2447,
      "Ġfire": 2448,
      "Ġshows": 2449,
      "icles": 2450,
      "erous": 2451,
      "Ġtotal": 2452,
      "Ġla": 2453,
      "ĠCanad": 2454,
      "Ġlonger": 2455,
      "ches": 2456,
      "emic": 2457,
      "ections": 2458,
      "Ġcontent": 2459,
      "ccording": 2460,
      "ĠAfter": 2461,
      "Ġtherap": 2462,
      "Ġwriting": 2463,
      "lor": 2464,
      "Ġterms": 2465,
      "Ġsix": 2466,
      "Ġprevious": 2467,
      "Ġinteract": 2468,
      "Ġenvironmental": 2469,
      "ES": 2470,
      "Ġschools": 2471,
      "Ġindividuals": 2472,
      "Ġindustry": 2473,
      "Ġhours": 2474,
      "Ġstructure": 2475,
      "Ġservice": 2476,
      "Ġtalk": 2477,
      "Ġtemperature": 2478,
      "Ġinj": 2479,
      "Ġbehavior": 2480,
      "Ġonline": 2481,
      "Ġposition": 2482,
      "hold": 2483,
      "wh": 2484,
      "Ġexperim": 2485,
      "Ġclean": 2486,
      "het": 2487,
      "anced": 2488,
      "minist": 2489,
      "Ġut": 2490,
      "Ġmatter": 2491,
      "itation": 2492,
      "Ġsociety": 2493,
      "Ã©": 2494,
      "Ġcompany": 2495,
      "Ġcaused": 2496,
      "ulations": 2497,
      "Ġheat": 2498,
      "Ġdisord": 2499,
      "Ġheav": 2500,
      "mon": 2501,
      "yle": 2502,
      "Ġdiagn": 2503,
      "Ġ25": 2504,
      "Ġprovided": 2505,
      "Ġtravel": 2506,
      "ĠPe": 2507,
      "Ġetc": 2508,
      "Ġsleep": 2509,
      "Ġsat": 2510,
      "Ġ11": 2511,
      "Ġcontact": 2512,
      "Ġtraining": 2513,
      "ricult": 2514,
      "fully": 2515,
      "aff": 2516,
      "astic": 2517,
      "Ġsurv": 2518,
      "Ġcauses": 2519,
      "ĠWhile": 2520,
      "Ġthing": 2521,
      "ID": 2522,
      "Ġ194": 2523,
      "ĠNo": 2524,
      "lt": 2525,
      "ĠSchool": 2526,
      "Ġconc": 2527,
      "Ġbreak": 2528,
      "ns": 2529,
      "ĠResearch": 2530,
      "ows": 2531,
      "arr": 2532,
      "Ġsex": 2533,
      "Ġmeaning": 2534,
      "ene": 2535,
      "ropri": 2536,
      "Ġaccept": 2537,
      "lands": 2538,
      "Ġcheck": 2539,
      "Ġce": 2540,
      "ister": 2541,
      "reng": 2542,
      "Ġeasy": 2543,
      "Ġtrue": 2544,
      "vey": 2545,
      "ederal": 2546,
      "ĠJapan": 2547,
      "Ġrev": 2548,
      "Ġvide": 2549,
      "Ġvari": 2550,
      "Ġcontain": 2551,
      "aily": 2552,
      "Ġshown": 2553,
      "Ġdesigned": 2554,
      "lex": 2555,
      "Ġlives": 2556,
      "inary": 2557,
      "AT": 2558,
      "Ġwild": 2559,
      "Ġbring": 2560,
      "Ġincludes": 2561,
      "istance": 2562,
      "ster": 2563,
      "Ġbenefits": 2564,
      "ĠII": 2565,
      "Ġearth": 2566,
      "hood": 2567,
      "ĠInstit": 2568,
      "rought": 2569,
      "ĠEm": 2570,
      "Ġprec": 2571,
      "istics": 2572,
      "Ġspread": 2573,
      "imately": 2574,
      "Ġvariety": 2575,
      "AR": 2576,
      "light": 2577,
      "ronic": 2578,
      "Ġaverage": 2579,
      "Ġstandard": 2580,
      "ched": 2581,
      "Ġsafe": 2582,
      "aving": 2583,
      "Ġmethods": 2584,
      "Ġste": 2585,
      "gar": 2586,
      "Ġcarbon": 2587,
      "Ġmach": 2588,
      "ĠPar": 2589,
      "Ġpositive": 2590,
      "dom": 2591,
      "rench": 2592,
      "Ġregular": 2593,
      "Ġsometimes": 2594,
      "abet": 2595,
      "aries": 2596,
      "asc": 2597,
      "Ġprograms": 2598,
      "Ġrelative": 2599,
      "atives": 2600,
      "Ġled": 2601,
      "Ġeat": 2602,
      "Ġbacter": 2603,
      "Ġslow": 2604,
      "Ġbelieve": 2605,
      "Ġsubst": 2606,
      "Ġdeep": 2607,
      "rior": 2608,
      "Ġissue": 2609,
      "Ġgreater": 2610,
      "Ġfru": 2611,
      "Ġfem": 2612,
      "Ġscientists": 2613,
      "Ġmusic": 2614,
      "Ġexc": 2615,
      "ners": 2616,
      "ufact": 2617,
      "Ġorigin": 2618,
      "Ġlove": 2619,
      "Ġreview": 2620,
      "Ġtarget": 2621,
      "Ġlif": 2622,
      "eration": 2623,
      "Ġmechan": 2624,
      "Ġsimply": 2625,
      "Ġresponse": 2626,
      "Ġviol": 2627,
      "Ġthreat": 2628,
      "icine": 2629,
      "Ġcompl": 2630,
      "ĠIndia": 2631,
      "ĠSu": 2632,
      "amed": 2633,
      "Ġreported": 2634,
      "osition": 2635,
      "Ġoriginal": 2636,
      "Ġculture": 2637,
      "Ġpoll": 2638,
      "But": 2639,
      "Ġdamage": 2640,
      "ĠKing": 2641,
      "ĠPres": 2642,
      "Ġinvolved": 2643,
      "Ġuses": 2644,
      "duc": 2645,
      "arily": 2646,
      "Ġsources": 2647,
      "ucle": 2648,
      "Ġwritten": 2649,
      "ades": 2650,
      "Ġmovement": 2651,
      "Ġpage": 2652,
      "new": 2653,
      "verse": 2654,
      "ength": 2655,
      "Ġpsych": 2656,
      "Ġhelps": 2657,
      "know": 2658,
      "Ġevents": 2659,
      "aling": 2660,
      "Ġpict": 2661,
      "Ġple": 2662,
      "Ġdoing": 2663,
      "Ġnormal": 2664,
      "ĠScience": 2665,
      "rast": 2666,
      "Ġcamp": 2667,
      "Ġdemon": 2668,
      "Ġrespect": 2669,
      "Ġidentify": 2670,
      "ban": 2671,
      "Ġencoura": 2672,
      "Ġoutside": 2673,
      "Ġfoods": 2674,
      "Ġcompan": 2675,
      "Ġtax": 2676,
      "22": 2677,
      "Ġface": 2678,
      "Ġimage": 2679,
      "ials": 2680,
      "Ġremov": 2681,
      "oor": 2682,
      "Ġcompon": 2683,
      "ĠMin": 2684,
      "ĠWill": 2685,
      "rand": 2686,
      "Ġforest": 2687,
      "ĠSec": 2688,
      "ington": 2689,
      "Ġstreng": 2690,
      "Ġparticularly": 2691,
      "Ġpoor": 2692,
      "Ġcompet": 2693,
      "Ġforms": 2694,
      "Ġproduced": 2695,
      "aches": 2696,
      "Ġlack": 2697,
      "ĠAustral": 2698,
      "ervation": 2699,
      "Ġmicro": 2700,
      "rim": 2701,
      "Ġgenerally": 2702,
      "Ġdeveloping": 2703,
      "Ġinteg": 2704,
      "umb": 2705,
      "Ġrefer": 2706,
      "ops": 2707,
      "Ġtend": 2708,
      "Ġ--": 2709,
      "Ġwebs": 2710,
      "Ġdeb": 2711,
      "bor": 2712,
      "Ġlate": 2713,
      "Ġfeet": 2714,
      "Ġattention": 2715,
      "Ġdispl": 2716,
      "issions": 2717,
      "idge": 2718,
      "Ġforce": 2719,
      "uge": 2720,
      "son": 2721,
      "ief": 2722,
      "Ġbasic": 2723,
      "Ġserious": 2724,
      "Ġbal": 2725,
      "Ġattempt": 2726,
      "ctions": 2727,
      "ĠPer": 2728,
      "Ġlog": 2729,
      "ached": 2730,
      "Ġextreme": 2731,
      "IN": 2732,
      "Ġimplement": 2733,
      "25": 2734,
      "Ġwood": 2735,
      "Ġshare": 2736,
      "Ġappl": 2737,
      "Ġsust": 2738,
      "room": 2739,
      "Ġensure": 2740,
      "Ġlat": 2741,
      "Ġattack": 2742,
      "oles": 2743,
      "osure": 2744,
      "Ġnumbers": 2745,
      "ĠEd": 2746,
      "Ġelectric": 2747,
      "Ġteachers": 2748,
      "Ġvisit": 2749,
      "isions": 2750,
      "raft": 2751,
      "Ġsqu": 2752,
      "Ġaff": 2753,
      "Ġincluded": 2754,
      "Ġgrowing": 2755,
      "Ġvirus": 2756,
      "Ġemb": 2757,
      "Ġcust": 2758,
      "ĠMe": 2759,
      "Ġcorrect": 2760,
      "ĠCO": 2761,
      "Ġ24": 2762,
      "rated": 2763,
      "set": 2764,
      "Ġnetwork": 2765,
      "Ġindepend": 2766,
      "Ġprobably": 2767,
      "Ġselect": 2768,
      "Ġconsist": 2769,
      "Ġcoun": 2770,
      "ĠApp": 2771,
      "ems": 2772,
      "elling": 2773,
      "Ġmagn": 2774,
      "ĠCount": 2775,
      "Ġessential": 2776,
      "Ġox": 2777,
      "Ġir": 2778,
      "Ġideas": 2779,
      "Ġdoesn": 2780,
      "Ġdraw": 2781,
      "Ġseries": 2782,
      "ming": 2783,
      "Ġanimal": 2784,
      "Ġaware": 2785,
      "Ġhyd": 2786,
      "Ġchalleng": 2787,
      "Ġcontinue": 2788,
      "Ġharm": 2789,
      "ecause": 2790,
      "Ġemot": 2791,
      "ĠJan": 2792,
      "Ġcommit": 2793,
      "Ġvacc": 2794,
      "ĠMany": 2795,
      "ĠQu": 2796,
      "vention": 2797,
      "Ġnight": 2798,
      "Ġmess": 2799,
      "irit": 2800,
      "Ġdou": 2801,
      "ided": 2802,
      "Ġpatient": 2803,
      "part": 2804,
      "fect": 2805,
      "cies": 2806,
      "Ġmanufact": 2807,
      "osing": 2808,
      "Ġtakes": 2809,
      "Ġdefin": 2810,
      "Ġbab": 2811,
      "Ġgetting": 2812,
      "uth": 2813,
      "ĠChina": 2814,
      "ĠPre": 2815,
      "Ġcolon": 2816,
      "Ġago": 2817,
      "Ġprep": 2818,
      "Ġpolicy": 2819,
      "ography": 2820,
      "ads": 2821,
      "ana": 2822,
      "ribution": 2823,
      "Ġthus": 2824,
      "oly": 2825,
      "Ġinternational": 2826,
      "Ġspeed": 2827,
      "hel": 2828,
      "Ġsafety": 2829,
      "ground": 2830,
      "Ġveget": 2831,
      "Ġtherefore": 2832,
      "Ġexpress": 2833,
      "ĠCenter": 2834,
      "uary": 2835,
      "rie": 2836,
      "imum": 2837,
      "ties": 2838,
      "ĠAg": 2839,
      "Ġestim": 2840,
      "Ġprint": 2841,
      "Ġkids": 2842,
      "Ġ/": 2843,
      "where": 2844,
      "ension": 2845,
      "Ġlooking": 2846,
      "Ġearl": 2847,
      "Ġeasily": 2848,
      "Ġsea": 2849,
      "ĠBo": 2850,
      "na": 2851,
      "Ġsomeone": 2852,
      "Ġmedia": 2853,
      "Ġconcent": 2854,
      "ext": 2855,
      "Ġinstead": 2856,
      "Ġwall": 2857,
      "Ġtheory": 2858,
      "Ġmother": 2859,
      "cell": 2860,
      "Ġscientific": 2861,
      "Ġfa": 2862,
      "haps": 2863,
      "On": 2864,
      "Ġprimary": 2865,
      "ĠMore": 2866,
      "Ġinvestig": 2867,
      "Ġsil": 2868,
      "ĠÂ": 2869,
      "ius": 2870,
      "Ġquite": 2871,
      "www": 2872,
      "Ġfinanc": 2873,
      "erson": 2874,
      "Ġcit": 2875,
      "IS": 2876,
      "Ġcross": 2877,
      "ĠInt": 2878,
      "ĠJu": 2879,
      "Ġsou": 2880,
      "overy": 2881,
      "itude": 2882,
      "oes": 2883,
      "Ġappropri": 2884,
      "Ġwarm": 2885,
      "ĠFrench": 2886,
      "inks": 2887,
      "rew": 2888,
      "anks": 2889,
      "Ġstarted": 2890,
      "ls": 2891,
      "Ġdaily": 2892,
      "iot": 2893,
      "iforn": 2894,
      "Ġtown": 2895,
      "ĠAug": 2896,
      "Ġtraditional": 2897,
      "Ġadded": 2898,
      "asons": 2899,
      "Ġvit": 2900,
      "Ġbooks": 2901,
      "Ġfav": 2902,
      "Ġcover": 2903,
      "ying": 2904,
      "Ġperformance": 2905,
      "Ġallows": 2906,
      "Ġdetermine": 2907,
      "ha": 2908,
      "ancy": 2909,
      "ceed": 2910,
      "ĠEuropean": 2911,
      "Ġdifference": 2912,
      "Ġdang": 2913,
      "Ġful": 2914,
      "Ġinstit": 2915,
      "Ġtree": 2916,
      "erg": 2917,
      "ĠPart": 2918,
      "Ġdiv": 2919,
      "Ġmental": 2920,
      "Ġestablished": 2921,
      "Ġheld": 2922,
      "yr": 2923,
      "ĠEduc": 2924,
      "Ġsold": 2925,
      "Ġleaders": 2926,
      "ino": 2927,
      "Ġtools": 2928,
      "Ġnation": 2929,
      "Ġcivil": 2930,
      "Ġcapt": 2931,
      "Ġtur": 2932,
      "ror": 2933,
      "Ġtiss": 2934,
      "Ġeval": 2935,
      "Ġcommunities": 2936,
      "Ġreflect": 2937,
      "ĠYour": 2938,
      "iency": 2939,
      "Ġunc": 2940,
      "Ġthous": 2941,
      "Ġthird": 2942,
      "Ġpoints": 2943,
      "Ġachieve": 2944,
      "Ġdiseases": 2945,
      "cil": 2946,
      "Ġlarger": 2947,
      "Ġprogress": 2948,
      "Ġ40": 2949,
      "orks": 2950,
      "Ġi": 2951,
      "Ġdecre": 2952,
      "ĠInstitute": 2953,
      "Ġinside": 2954,
      "Ġtrees": 2955,
      "ĠCons": 2956,
      "ender": 2957,
      "ĠMost": 2958,
      "Ġquickly": 2959,
      "Ġmilitary": 2960,
      "ĠIndian": 2961,
      "Ġeth": 2962,
      "abetes": 2963,
      "ifornia": 2964,
      "ellow": 2965,
      "Ġoffer": 2966,
      "Ġcompared": 2967,
      "ille": 2968,
      "Ġmultiple": 2969,
      "Ġ...": 2970,
      "ĠAc": 2971,
      "Ġimmedi": 2972,
      "Ġfront": 2973,
      "elt": 2974,
      "Ġunique": 2975,
      "Ġhumans": 2976,
      "Ġaltern": 2977,
      "ounds": 2978,
      "Ġdirectly": 2979,
      "Ġanswer": 2980,
      "ĠEl": 2981,
      "ĠDepartment": 2982,
      "useum": 2983,
      "Ġspeak": 2984,
      "Ġreve": 2985,
      "ĠGl": 2986,
      "rate": 2987,
      "Ġcompanies": 2988,
      "Ġeye": 2989,
      "ift": 2990,
      "Ġadditional": 2991,
      "pril": 2992,
      "aces": 2993,
      "omet": 2994,
      "cean": 2995,
      "Ġhighly": 2996,
      "Ġ2010": 2997,
      "Ġsevere": 2998,
      "OR": 2999,
      "Ġdrink": 3000,
      "undred": 3001,
      "Ġrout": 3002,
      "Ġdocument": 3003,
      "Ġalthough": 3004,
      "Ġdemonstr": 3005,
      "Ġinfection": 3006,
      "AN": 3007,
      "pe": 3008,
      "Ġproced": 3009,
      "rs": 3010,
      "icated": 3011,
      "Ġbit": 3012,
      "Ġdoctor": 3013,
      "Ġhttp": 3014,
      "ON": 3015,
      "Ġsoon": 3016,
      "Ġshall": 3017,
      "Ġactive": 3018,
      "term": 3019,
      "Ġbirth": 3020,
      "Ġclin": 3021,
      "iers": 3022,
      "Ġbehind": 3023,
      "thern": 3024,
      "Ġdry": 3025,
      "Ġsecurity": 3026,
      "Ġlabor": 3027,
      "den": 3028,
      "Ġprior": 3029,
      "Ġsolar": 3030,
      "ĠJes": 3031,
      "Ġfamilies": 3032,
      "One": 3033,
      "ĠAfrica": 3034,
      "oming": 3035,
      "ĠMarch": 3036,
      "Ġ2012": 3037,
      "hern": 3038,
      "ĠGerman": 3039,
      "gency": 3040,
      "Ġexercise": 3041,
      "Ġnegative": 3042,
      "ilos": 3043,
      "Ġextra": 3044,
      "joy": 3045,
      "Ġhost": 3046,
      "Ġaspect": 3047,
      "Ġtri": 3048,
      "Ġ,": 3049,
      "Ġwent": 3050,
      "ĠSm": 3051,
      "Ġuseful": 3052,
      "Ġwalk": 3053,
      "Ġcentral": 3054,
      "Ġhor": 3055,
      "ulate": 3056,
      "Ġbroad": 3057,
      "Ġbad": 3058,
      "ĠWest": 3059,
      "Ġhar": 3060,
      "Ġacid": 3061,
      "Ġtransport": 3062,
      "Ġaud": 3063,
      "iques": 3064,
      "nov": 3065,
      "Ġbeginning": 3066,
      "Ġdecl": 3067,
      "ĠCalifornia": 3068,
      "ĠOct": 3069,
      "formation": 3070,
      "ĠHar": 3071,
      "Ġvideo": 3072,
      "isms": 3073,
      "21": 3074,
      "Ġseems": 3075,
      "Ġhabit": 3076,
      "Ġcritical": 3077,
      "Ġwhose": 3078,
      "Ġprotein": 3079,
      "Ġvalues": 3080,
      "Ġ2011": 3081,
      "ĠRec": 3082,
      "Ġobt": 3083,
      "IC": 3084,
      "Ġlimited": 3085,
      "aly": 3086,
      "uries": 3087,
      "Ġsupply": 3088,
      "23": 3089,
      "ĠOther": 3090,
      "Ġfoot": 3091,
      "ĠChild": 3092,
      "Ġsus": 3093,
      "Ġpurpose": 3094,
      "rig": 3095,
      "Ġaccur": 3096,
      "iter": 3097,
      "Ġanaly": 3098,
      "ĠJune": 3099,
      "Ġstay": 3100,
      "Ġleading": 3101,
      "ĠRuss": 3102,
      "Ġgard": 3103,
      "Ġsearch": 3104,
      "ĠOf": 3105,
      "yond": 3106,
      "uman": 3107,
      "omb": 3108,
      "ims": 3109,
      "ĠInternational": 3110,
      "Ġmount": 3111,
      "ĠArt": 3112,
      "vant": 3113,
      "ĠUs": 3114,
      "Ġfram": 3115,
      "Ġquant": 3116,
      "Ġcard": 3117,
      "He": 3118,
      "Ġtowards": 3119,
      "Ġteaching": 3120,
      "itis": 3121,
      "ĠChar": 3122,
      "olar": 3123,
      "IV": 3124,
      "Ġstra": 3125,
      "mar": 3126,
      "Ġexpect": 3127,
      "iber": 3128,
      "ĠAfrican": 3129,
      "ĠHer": 3130,
      "rition": 3131,
      "ĠRiver": 3132,
      "âĢ¢": 3133,
      "Ġhot": 3134,
      "Ġfeatures": 3135,
      "rogen": 3136,
      "Ġsituation": 3137,
      "Ġnucle": 3138,
      "Ġimpl": 3139,
      "Ġnews": 3140,
      "Ġsoftware": 3141,
      "lation": 3142,
      "gn": 3143,
      "Ġhands": 3144,
      "Ġcontains": 3145,
      "rote": 3146,
      "Ġminutes": 3147,
      "ĠNot": 3148,
      "Ġbase": 3149,
      "Ġjud": 3150,
      "Ġcontribut": 3151,
      "Ġlost": 3152,
      "orthern": 3153,
      "So": 3154,
      "Ġfight": 3155,
      "ran": 3156,
      "Ġones": 3157,
      "ĠGree": 3158,
      "ĠAlthough": 3159,
      "wise": 3160,
      "40": 3161,
      "inct": 3162,
      "Ġpack": 3163,
      "Ġcustom": 3164,
      "Ġinterp": 3165,
      "ĠSch": 3166,
      "ĠSept": 3167,
      "And": 3168,
      "Ġsection": 3169,
      "Ġancient": 3170,
      "coh": 3171,
      "lection": 3172,
      "come": 3173,
      "Ġelements": 3174,
      "itch": 3175,
      "ĠHistory": 3176,
      "Ġwrite": 3177,
      "hest": 3178,
      "Ġstri": 3179,
      "ĠMus": 3180,
      "pper": 3181,
      "Ġthinking": 3182,
      "Ġrates": 3183,
      "Ġrequires": 3184,
      "Ġexact": 3185,
      "Ġdark": 3186,
      "Ġexcept": 3187,
      "oring": 3188,
      "att": 3189,
      "ription": 3190,
      "Ġlength": 3191,
      "Ġfast": 3192,
      "Ġdescribed": 3193,
      "ĠWash": 3194,
      "Ġx": 3195,
      "Ġhundred": 3196,
      "Ġreceived": 3197,
      "see": 3198,
      "ĠServ": 3199,
      "Ġnorth": 3200,
      "Ġord": 3201,
      "AS": 3202,
      "ields": 3203,
      "Ġjo": 3204,
      "Ġelse": 3205,
      "ĠAugust": 3206,
      "Ġbrought": 3207,
      "ĠReg": 3208,
      "Ġcapital": 3209,
      "Ġwaste": 3210,
      "Ġadults": 3211,
      "Ġadminist": 3212,
      "Ġlargest": 3213,
      "Ġinfluence": 3214,
      "Ġmom": 3215,
      "hens": 3216,
      "Ġworkers": 3217,
      "Ġapplication": 3218,
      "ologies": 3219,
      "Ġimages": 3220,
      "Ġwa": 3221,
      "fort": 3222,
      "ĠTra": 3223,
      "Ġagricult": 3224,
      "Ġagree": 3225,
      "Ġsustain": 3226,
      "uk": 3227,
      "60": 3228,
      "Ġfinancial": 3229,
      "Ġstrateg": 3230,
      "rael": 3231,
      "used": 3232,
      "Ġblock": 3233,
      "istry": 3234,
      "imin": 3235,
      "Ġenjoy": 3236,
      "Ġ21": 3237,
      "Ġnearly": 3238,
      "Ġweeks": 3239,
      "izations": 3240,
      "âĢĿ.": 3241,
      "Ġprivate": 3242,
      "Ġcred": 3243,
      "Ġcapac": 3244,
      "Ġlocated": 3245,
      "Ġdisp": 3246,
      "Ġgot": 3247,
      "Ġprotection": 3248,
      "Ġdemand": 3249,
      "Ġcarry": 3250,
      "ibrary": 3251,
      "ĠFirst": 3252,
      "80": 3253,
      "Ġdecision": 3254,
      "equ": 3255,
      "EN": 3256,
      "ĠKe": 3257,
      "vest": 3258,
      "Ġlines": 3259,
      "Ġang": 3260,
      "ĠBar": 3261,
      "ĠMon": 3262,
      "Ġestablish": 3263,
      "ĠSw": 3264,
      "iles": 3265,
      "ipl": 3266,
      "ĠApril": 3267,
      "Ġwebsite": 3268,
      "bit": 3269,
      "Ġmill": 3270,
      "ĠAnt": 3271,
      "Ġcosts": 3272,
      "ulated": 3273,
      "Ġsn": 3274,
      "ipment": 3275,
      "Ġult": 3276,
      "Ġtests": 3277,
      "Ġgoal": 3278,
      "'re": 3279,
      "ĠJuly": 3280,
      "Ġprocesses": 3281,
      "ĠHere": 3282,
      "Ġmole": 3283,
      "con": 3284,
      "Ġplaces": 3285,
      "odies": 3286,
      "Ġsites": 3287,
      "ED": 3288,
      "Ġleaves": 3289,
      "Ġdevices": 3290,
      "ĠTw": 3291,
      "Ġrare": 3292,
      "Ġbacteria": 3293,
      "Ġbecomes": 3294,
      "Ġseason": 3295,
      "Ġsymb": 3296,
      "Ġappropriate": 3297,
      "Ġep": 3298,
      "ĠDav": 3299,
      "year": 3300,
      "rag": 3301,
      "199": 3302,
      "Ġcommand": 3303,
      "Ġreligious": 3304,
      "ĠJesus": 3305,
      "Ġmention": 3306,
      "Ġmemory": 3307,
      "PA": 3308,
      "cks": 3309,
      "Ġlaws": 3310,
      "Ġadop": 3311,
      "Ġprojects": 3312,
      "ĠPress": 3313,
      "Ġgame": 3314,
      "ĠEngland": 3315,
      "ĠCor": 3316,
      "ĠAssoci": 3317,
      "Ġimportance": 3318,
      "Ġsolution": 3319,
      "sect": 3320,
      "life": 3321,
      "Ġreach": 3322,
      "Ġefforts": 3323,
      "ica": 3324,
      "Ġtable": 3325,
      "ĠChristian": 3326,
      "mission": 3327,
      "Ġadj": 3328,
      "Ġremain": 3329,
      "Ġsouth": 3330,
      "Ġtypically": 3331,
      "Ġborn": 3332,
      "Ġrespond": 3333,
      "ĠMc": 3334,
      "idents": 3335,
      "ĠAmericans": 3336,
      "uous": 3337,
      "Ġproperty": 3338,
      "eal": 3339,
      "med": 3340,
      "Ġtold": 3341,
      "Ġfit": 3342,
      "Ġadapt": 3343,
      "Ġbasis": 3344,
      "ĠPresident": 3345,
      "Ġstru": 3346,
      "entially": 3347,
      "Ġhimself": 3348,
      "Ġrapid": 3349,
      "ĠCanada": 3350,
      "imal": 3351,
      "Ġinstall": 3352,
      "Ġsurround": 3353,
      "cial": 3354,
      "itect": 3355,
      "24": 3356,
      "Ġveh": 3357,
      "Ġcoast": 3358,
      "Ġbeaut": 3359,
      "oud": 3360,
      "Ġeyes": 3361,
      "Ġremains": 3362,
      "ĠFrom": 3363,
      "Ġ2009": 3364,
      "Ġcool": 3365,
      "ĠDay": 3366,
      "Ġfather": 3367,
      "Ġtechniques": 3368,
      "____": 3369,
      "ĠMy": 3370,
      "Ġtesting": 3371,
      "inese": 3372,
      "iece": 3373,
      "izes": 3374,
      "Ġegg": 3375,
      "Ġdeal": 3376,
      "ondon": 3377,
      "aul": 3378,
      "Ġsummer": 3379,
      "ĠProg": 3380,
      "Ġfriends": 3381,
      "resh": 3382,
      "back": 3383,
      "head": 3384,
      "Ġcenter": 3385,
      "Ġder": 3386,
      "Ġvict": 3387,
      "cember": 3388,
      "Ġmix": 3389,
      "Ġgives": 3390,
      "estic": 3391,
      "oke": 3392,
      "At": 3393,
      "atur": 3394,
      "ype": 3395,
      "Ġadvant": 3396,
      "water": 3397,
      "Ġfuel": 3398,
      "ham": 3399,
      "Ġconstruction": 3400,
      "Ġcrop": 3401,
      "ĠWilliam": 3402,
      "Ġdied": 3403,
      "Ġson": 3404,
      "Ġdead": 3405,
      "Ġapplications": 3406,
      "Ġmiles": 3407,
      "uments": 3408,
      "ĠGovern": 3409,
      "Ġcitiz": 3410,
      "Ġcommunication": 3411,
      "arian": 3412,
      "Ġeating": 3413,
      "Ġsaw": 3414,
      "ford": 3415,
      "Ġcam": 3416,
      "Ġking": 3417,
      "ari": 3418,
      "Ġtrade": 3419,
      "king": 3420,
      "Ġcold": 3421,
      "cohol": 3422,
      "ĠCong": 3423,
      "ĠWashington": 3424,
      "Ġweb": 3425,
      "Ġteacher": 3426,
      "Ġcreating": 3427,
      "Ġ2013": 3428,
      "ĠPark": 3429,
      "Ġmonitor": 3430,
      "Ġcele": 3431,
      "Ġnothing": 3432,
      "Ġcultural": 3433,
      "Ġroom": 3434,
      "Ġsugar": 3435,
      "bur": 3436,
      "Ġfinal": 3437,
      "Ġanything": 3438,
      "mosp": 3439,
      "ama": 3440,
      "ĠCity": 3441,
      "Ġbreat": 3442,
      "ogen": 3443,
      "IT": 3444,
      "ĠRet": 3445,
      "Ġ2008": 3446,
      "Ġresponsible": 3447,
      "Ġsequ": 3448,
      "Ġexpected": 3449,
      "cles": 3450,
      "ira": 3451,
      "Ġbehavi": 3452,
      "Ġrecently": 3453,
      "Ġhope": 3454,
      "ĠIsrael": 3455,
      "Ġfollowed": 3456,
      "ĠChurch": 3457,
      "Ġgradu": 3458,
      "These": 3459,
      "Ġrock": 3460,
      "Ġhous": 3461,
      "Ġbott": 3462,
      "Ġice": 3463,
      "Ġdepend": 3464,
      "aught": 3465,
      "Ġobjects": 3466,
      "Ġimag": 3467,
      "exic": 3468,
      "ĠEducation": 3469,
      "Ġtherapy": 3470,
      "ony": 3471,
      "Ġeverything": 3472,
      "ovember": 3473,
      "Ġanti": 3474,
      "co": 3475,
      "Ġbenefit": 3476,
      "Ġreasons": 3477,
      "Ġolder": 3478,
      "Ġpan": 3479,
      "Ġforces": 3480,
      "Ġdevice": 3481,
      "Ġcou": 3482,
      "Ġreceive": 3483,
      "Ġstage": 3484,
      "Ġlegal": 3485,
      "iar": 3486,
      "itable": 3487,
      "ĠFeb": 3488,
      "Ġmiddle": 3489,
      "unch": 3490,
      "Ġund": 3491,
      "Ġten": 3492,
      "Ġbul": 3493,
      "....": 3494,
      "illing": 3495,
      "ev": 3496,
      "strial": 3497,
      "ĠJanuary": 3498,
      "Ġteeth": 3499,
      "ĠGreat": 3500,
      "Ġmid": 3501,
      "Ġspirit": 3502,
      "Ġcode": 3503,
      "Ġscreen": 3504,
      "Ġpen": 3505,
      "Ġexposure": 3506,
      "Ġautom": 3507,
      "Ġbeyond": 3508,
      "ĠInc": 3509,
      "ula": 3510,
      "Ġasked": 3511,
      "ĠJournal": 3512,
      "Ġaffected": 3513,
      "time": 3514,
      "Ġfederal": 3515,
      "Ġmodels": 3516,
      "ought": 3517,
      "Ġconnect": 3518,
      "apter": 3519,
      "By": 3520,
      "Ġscale": 3521,
      "ellig": 3522,
      "Ġequipment": 3523,
      "Ġexamples": 3524,
      "Ġhyp": 3525,
      "ĠSeptember": 3526,
      "AC": 3527,
      "Ġpregn": 3528,
      "Ġdiabetes": 3529,
      "Ex": 3530,
      "Ġsmaller": 3531,
      "ĠTechn": 3532,
      "uff": 3533,
      "Ġconsequ": 3534,
      "rees": 3535,
      "Ġdate": 3536,
      "ĠCom": 3537,
      "Ġproviding": 3538,
      "Ġoccurs": 3539,
      "tery": 3540,
      "lam": 3541,
      "sec": 3542,
      "Ġcurrently": 3543,
      "ĠLear": 3544,
      "Ġcalcul": 3545,
      "Ġchoose": 3546,
      "lin": 3547,
      "aid": 3548,
      "iples": 3549,
      "Ġconstit": 3550,
      "Ġ23": 3551,
      "Ġdrugs": 3552,
      "ĠOctober": 3553,
      "Ġweather": 3554,
      "Ġopportunity": 3555,
      "Ġfile": 3556,
      "Ġstandards": 3557,
      "Ġwrote": 3558,
      "Ġeconomy": 3559,
      "Ġrain": 3560,
      "ests": 3561,
      "Ġrecommend": 3562,
      "Ġcontroll": 3563,
      "Ġprofessional": 3564,
      "Ġpractices": 3565,
      "Ġalone": 3566,
      "Ġdigital": 3567,
      "Ġ:": 3568,
      "Ġfear": 3569,
      "Ġinstru": 3570,
      "anish": 3571,
      "edia": 3572,
      "à¤": 3573,
      "ĠSystem": 3574,
      "Ġguid": 3575,
      "can": 3576,
      "Ġsett": 3577,
      "ding": 3578,
      "ĠEven": 3579,
      "Ġlocation": 3580,
      "Ġsuccessful": 3581,
      "Ġcra": 3582,
      "Ġcompletely": 3583,
      "lamm": 3584,
      "Ġwon": 3585,
      "Ġinsp": 3586,
      "Ġorganization": 3587,
      ");": 3588,
      "Ġconflic": 3589,
      "ĠCounty": 3590,
      "With": 3591,
      "ospital": 3592,
      "ĠBi": 3593,
      "Ġcollection": 3594,
      "Ġdegree": 3595,
      "vert": 3596,
      "Ġtrying": 3597,
      "Ġtit": 3598,
      "Ġbirds": 3599,
      "Ġapprox": 3600,
      "Ġvisual": 3601,
      "ĠChinese": 3602,
      "Ġearlier": 3603,
      "ribute": 3604,
      "Ġbeg": 3605,
      "Ġyourself": 3606,
      "While": 3607,
      "ĠDevelop": 3608,
      "Ġpurch": 3609,
      "ĠDNA": 3610,
      "Ġpredict": 3611,
      "airs": 3612,
      "book": 3613,
      "aur": 3614,
      "ĠIS": 3615,
      "Ġeveryone": 3616,
      "Ġwoman": 3617,
      "ensity": 3618,
      "men": 3619,
      "Ġrise": 3620,
      "Ġswe": 3621,
      "aced": 3622,
      "Ġwinter": 3623,
      "Ġeffort": 3624,
      "load": 3625,
      "Ġallowed": 3626,
      "mitted": 3627,
      "enge": 3628,
      "Ġdifferences": 3629,
      "Ġplaced": 3630,
      "Ġnamed": 3631,
      "Ġshape": 3632,
      "Ġstrength": 3633,
      "Ġrules": 3634,
      "Ġdestro": 3635,
      "ĠVir": 3636,
      "ĠEc": 3637,
      "icate": 3638,
      "Ġmeasures": 3639,
      "wide": 3640,
      "Ġvia": 3641,
      "Ġ60": 3642,
      "Ġinteresting": 3643,
      "27": 3644,
      "Ġconstant": 3645,
      "ĠLondon": 3646,
      "Ġgoes": 3647,
      "ocol": 3648,
      "Ġplanet": 3649,
      "ĠMexic": 3650,
      "rick": 3651,
      "Ġformer": 3652,
      "ĠSur": 3653,
      "ĠEast": 3654,
      "ĠPol": 3655,
      "Ġoverall": 3656,
      "oe": 3657,
      "Ġball": 3658,
      "ĠDis": 3659,
      "Ġcru": 3660,
      "Ġvirt": 3661,
      "Ġjoint": 3662,
      "Ġsch": 3663,
      "ĠThen": 3664,
      "Ġleave": 3665,
      "Ġexec": 3666,
      "Ġmember": 3667,
      "ruary": 3668,
      "Ġcommonly": 3669,
      "ĠAccording": 3670,
      "oday": 3671,
      "Ġbillion": 3672,
      "Ġneigh": 3673,
      "Ġcommerc": 3674,
      "iest": 3675,
      "Ġcontinued": 3676,
      "Ġreduced": 3677,
      "Ġcateg": 3678,
      "ocr": 3679,
      "Ġ193": 3680,
      "Ġdiscovered": 3681,
      "ĠTrans": 3682,
      "Ġusers": 3683,
      "ĠOur": 3684,
      "ĠSan": 3685,
      "Ġisn": 3686,
      "ĠRed": 3687,
      "Ġenh": 3688,
      "Ġhon": 3689,
      "Ġuser": 3690,
      "Ġgenetic": 3691,
      "ĠDecember": 3692,
      "Ġpet": 3693,
      "ingu": 3694,
      "ĠHigh": 3695,
      "ara": 3696,
      "Ġoccup": 3697,
      "cious": 3698,
      "ĠCommun": 3699,
      "Ġpoly": 3700,
      "ĠRoman": 3701,
      "ĠBr": 3702,
      "aters": 3703,
      "Ġdisplay": 3704,
      "Ġ2007": 3705,
      "Ġelectr": 3706,
      "off": 3707,
      "Ġmaintain": 3708,
      "ste": 3709,
      "Ġacqu": 3710,
      "ĠSim": 3711,
      "Ġapplied": 3712,
      "Ġidentified": 3713,
      "hemat": 3714,
      "bl": 3715,
      "Ġperfect": 3716,
      "su": 3717,
      "ocks": 3718,
      "irection": 3719,
      "Ġenter": 3720,
      "ĠLaw": 3721,
      "eech": 3722,
      "ĠRead": 3723,
      "29": 3724,
      "Ġsteps": 3725,
      "Ġtrack": 3726,
      "Ġhistorical": 3727,
      "26": 3728,
      "Ġformed": 3729,
      "Ġrob": 3730,
      "ĠVal": 3731,
      "Ġtox": 3732,
      "reet": 3733,
      "Ġeight": 3734,
      "Ġpowerful": 3735,
      "Some": 3736,
      "ibly": 3737,
      "more": 3738,
      "Ġrule": 3739,
      "Ġmiss": 3740,
      "ords": 3741,
      "AL": 3742,
      "Ġgold": 3743,
      "Ġversion": 3744,
      "bre": 3745,
      "Ġmis": 3746,
      "Ġmax": 3747,
      "edom": 3748,
      "Ġden": 3749,
      "Ġsect": 3750,
      "Ġwond": 3751,
      "Ġcoming": 3752,
      "iable": 3753,
      "enty": 3754,
      "ĠDuring": 3755,
      "oration": 3756,
      "Ġrich": 3757,
      "Ġphilos": 3758,
      "Ġmajority": 3759,
      "ĠInst": 3760,
      "Ġcourt": 3761,
      "Ġbaby": 3762,
      "craft": 3763,
      "ĠPat": 3764,
      "Ġstatus": 3765,
      "Ġcompar": 3766,
      "Ġsigns": 3767,
      "Ġcontext": 3768,
      "Ġchurch": 3769,
      "ĠCoun": 3770,
      "Ġevolution": 3771,
      "ĠNovember": 3772,
      "Ġatmosp": 3773,
      "Ġteach": 3774,
      "ĠMod": 3775,
      "Ġfair": 3776,
      "alt": 3777,
      "que": 3778,
      "ĠGeneral": 3779,
      "emy": 3780,
      "Ġgave": 3781,
      "Ġfruit": 3782,
      "ĠArch": 3783,
      "Ġroad": 3784,
      "ĠCour": 3785,
      "Ġshowed": 3786,
      "Ġlimit": 3787,
      "aled": 3788,
      "70": 3789,
      "encies": 3790,
      "known": 3791,
      "Ġcook": 3792,
      "Ġacad": 3793,
      "Ġproperties": 3794,
      "rab": 3795,
      "Ġmig": 3796,
      "Ġpow": 3797,
      "Ġmob": 3798,
      "gery": 3799,
      "rec": 3800,
      "Ġcapacity": 3801,
      "28": 3802,
      "Ġ195": 3803,
      "Ġperhaps": 3804,
      "Ġpresence": 3805,
      "osy": 3806,
      "Ġemissions": 3807,
      "ĠJewish": 3808,
      "Ġcities": 3809,
      "atin": 3810,
      "Ġ+": 3811,
      "ĠBecause": 3812,
      "Ġassign": 3813,
      "ament": 3814,
      "Ġast": 3815,
      "aint": 3816,
      "Ġstim": 3817,
      "Ġincreases": 3818,
      "Ġillness": 3819,
      "Pro": 3820,
      "Ġnames": 3821,
      "ĠAlso": 3822,
      "Ġmouth": 3823,
      "Ġnote": 3824,
      "Ġrelatively": 3825,
      "Ġrat": 3826,
      "ĠFin": 3827,
      "Ġasse": 3828,
      "\",": 3829,
      "Ġremember": 3830,
      "ĠUnion": 3831,
      "ĠSociety": 3832,
      "aste": 3833,
      "ĠHouse": 3834,
      "Ġgir": 3835,
      "Ġmut": 3836,
      "Ġimmune": 3837,
      "Ġtissue": 3838,
      "Ġbra": 3839,
      "Ġfully": 3840,
      "Ġbelief": 3841,
      "ĠSince": 3842,
      "Ġdidn": 3843,
      "Ġillust": 3844,
      "Ġchoice": 3845,
      "phas": 3846,
      "Ġpeace": 3847,
      "Ġsymbol": 3848,
      "Ġdat": 3849,
      "related": 3850,
      "Ġchanged": 3851,
      "EC": 3852,
      "ĠBlack": 3853,
      "Ġpatterns": 3854,
      "Ġactions": 3855,
      "Ġconstruct": 3856,
      "inated": 3857,
      "Ġantib": 3858,
      "Ġsitu": 3859,
      "ĠConf": 3860,
      "odes": 3861,
      "resp": 3862,
      "Ġappears": 3863,
      "Ġefficient": 3864,
      "orge": 3865,
      "era": 3866,
      "ternal": 3867,
      "gypt": 3868,
      "Ġfemale": 3869,
      "Ġexisting": 3870,
      "oted": 3871,
      "ĠWater": 3872,
      "iences": 3873,
      "ĠAustralia": 3874,
      "Ġtou": 3875,
      "Ġmachine": 3876,
      "Ġcry": 3877,
      "iring": 3878,
      "Ġassist": 3879,
      "II": 3880,
      "Ġstaff": 3881,
      "Ġnutri": 3882,
      "Ġfactor": 3883,
      "Ġunit": 3884,
      "Ġriver": 3885,
      "Ġworked": 3886,
      "Ġworth": 3887,
      "iful": 3888,
      "Ġvill": 3889,
      "Ġincor": 3890,
      "udd": 3891,
      "rief": 3892,
      "Ġmoving": 3893,
      "ĠGermany": 3894,
      "ĠProt": 3895,
      "Ġalcohol": 3896,
      "aign": 3897,
      "Ġpp": 3898,
      "Ġmoment": 3899,
      "ĠAre": 3900,
      "Ġpicture": 3901,
      "ees": 3902,
      "Ġtransfer": 3903,
      "Ġpiece": 3904,
      "ĠNow": 3905,
      "Ġprice": 3906,
      "Ġrepe": 3907,
      "Ġ26": 3908,
      "Ġcomponents": 3909,
      "Ġstories": 3910,
      "Ġexpand": 3911,
      "Ġcontract": 3912,
      "Ġeducational": 3913,
      "ĠProf": 3914,
      "Ġfresh": 3915,
      "Ġemp": 3916,
      "Ġ28": 3917,
      "Ġforward": 3918,
      "Ġtask": 3919,
      "Ġgiving": 3920,
      "Ġarchitect": 3921,
      "Ġmission": 3922,
      "ession": 3923,
      "Ġfunctions": 3924,
      "Ġstrugg": 3925,
      "house": 3926,
      "Ad": 3927,
      "Ġeffic": 3928,
      "Ġelement": 3929,
      "ĠUse": 3930,
      "ĠJust": 3931,
      "ĠFrance": 3932,
      "Ġforeign": 3933,
      "amb": 3934,
      "abilities": 3935,
      "ero": 3936,
      "Ġmap": 3937,
      "ĠPeople": 3938,
      "iate": 3939,
      "Ġbox": 3940,
      "Ġbreast": 3941,
      "Ġevalu": 3942,
      "Ġconvers": 3943,
      "ĠAssociation": 3944,
      "Ġ2000": 3945,
      "ĠRo": 3946,
      "ĠFl": 3947,
      "rieved": 3948,
      "Ġreports": 3949,
      "rome": 3950,
      "ĠNA": 3951,
      "Ġstar": 3952,
      "Ġhair": 3953,
      "ky": 3954,
      "Ġinstance": 3955,
      "force": 3956,
      "icip": 3957,
      "Ġfindings": 3958,
      "Ġwid": 3959,
      "Ġopportunities": 3960,
      "Is": 3961,
      "Ġequal": 3962,
      "Ġtele": 3963,
      "Un": 3964,
      "Ġdirection": 3965,
      "Ġobserved": 3966,
      "Ġoffers": 3967,
      "iny": 3968,
      "rehens": 3969,
      "Ġconsumption": 3970,
      "ĠEnvironment": 3971,
      "Ġanx": 3972,
      "Ġdetect": 3973,
      "Ġbalance": 3974,
      "ĠFebruary": 3975,
      "Ġdistance": 3976,
      "rupt": 3977,
      "Ġregions": 3978,
      "Ġ27": 3979,
      "Ġplanning": 3980,
      "Ġnative": 3981,
      "Ġthousands": 3982,
      "ST": 3983,
      "Ġassum": 3984,
      "Ġchallenges": 3985,
      "ygen": 3986,
      "Ġvo": 3987,
      "Ġcollabor": 3988,
      "Ġdetails": 3989,
      "Ġinnov": 3990,
      "Ġing": 3991,
      "Ġblue": 3992,
      "Ġoffice": 3993,
      "Ġqual": 3994,
      "eding": 3995,
      "Ġvision": 3996,
      "Ġbelieved": 3997,
      "Ġmal": 3998,
      "Ġweak": 3999,
      "Ġwrong": 4000,
      "Ġrunning": 4001,
      "ĠCongress": 4002,
      "Ġabsor": 4003,
      "HE": 4004,
      "lim": 4005,
      "asion": 4006,
      "Ġ22": 4007,
      "Ġfriend": 4008,
      "igen": 4009,
      "Ġfamous": 4010,
      "ĠAng": 4011,
      "Ġpassed": 4012,
      "Ġchance": 4013,
      "Ġhuge": 4014,
      "Ġinstruct": 4015,
      "Ġsurpr": 4016,
      "Ġstyle": 4017,
      "hors": 4018,
      "Ġexplain": 4019,
      "Ġplans": 4020,
      "Be": 4021,
      "ald": 4022,
      "All": 4023,
      "Ġexhib": 4024,
      "Ġaim": 4025,
      "ĠPhil": 4026,
      "Ġdisorder": 4027,
      "oma": 4028,
      "Ġsurvey": 4029,
      "omas": 4030,
      "Ġspect": 4031,
      "che": 4032,
      "Ġmuscle": 4033,
      "ĠTheir": 4034,
      "Ġdefined": 4035,
      "Ġcitizens": 4036,
      "Ġphen": 4037,
      "pped": 4038,
      "ifically": 4039,
      "Ġbound": 4040,
      "Ġmilk": 4041,
      "Ġwatch": 4042,
      "pective": 4043,
      "Ġseparate": 4044,
      "âĢĿ,": 4045,
      "Ġguide": 4046,
      "lege": 4047,
      "ĠEach": 4048,
      "Ġgain": 4049,
      "iment": 4050,
      "Ġclassroom": 4051,
      "Ġtreated": 4052,
      "Ġsignificantly": 4053,
      "iox": 4054,
      "DA": 4055,
      "ĠUK": 4056,
      "Ġeventually": 4057,
      "nes": 4058,
      "Ġfavor": 4059,
      "Ġclinical": 4060,
      "Ġinsect": 4061,
      "Ġcommercial": 4062,
      "Ġoptions": 4063,
      "cont": 4064,
      "tee": 4065,
      "Ġfeature": 4066,
      "Ġ2006": 4067,
      "Ġsuggests": 4068,
      "Ġincome": 4069,
      "ĠEgypt": 4070,
      "Ġbone": 4071,
      "Ġextremely": 4072,
      "ĠGreen": 4073,
      "yd": 4074,
      "orage": 4075,
      "Ġsuppl": 4076,
      "uild": 4077,
      "Ġitems": 4078,
      "RE": 4079,
      "ogle": 4080,
      "Ġgoals": 4081,
      "ĠInternet": 4082,
      "Ġresistance": 4083,
      "ses": 4084,
      "Ġfigure": 4085,
      "Ġap": 4086,
      "Ġfix": 4087,
      "Ġpresented": 4088,
      "Ġlearned": 4089,
      "Ġcelebr": 4090,
      "Ġgarden": 4091,
      "ographic": 4092,
      "ĠWestern": 4093,
      "Ġfert": 4094,
      "Ġmale": 4095,
      "ching": 4096,
      "bed": 4097,
      "iding": 4098,
      "Ġhighest": 4099,
      "Ġcarried": 4100,
      "Ġiron": 4101,
      "eces": 4102,
      "wards": 4103,
      "Ġstrategies": 4104,
      "Ġheavy": 4105,
      "Ġseven": 4106,
      "Ġapply": 4107,
      "Ġexcess": 4108,
      "Ġattract": 4109,
      "Ġspring": 4110,
      "ĠThus": 4111,
      "Ġsac": 4112,
      "Ġstructures": 4113,
      "90": 4114,
      "Ġorganizations": 4115,
      "Ġdepression": 4116,
      "Ġgeneration": 4117,
      "ĠLord": 4118,
      "Ġimmediately": 4119,
      "Ġrequirements": 4120,
      "Ġjournal": 4121,
      "Ġboard": 4122,
      "Ġtechnologies": 4123,
      "After": 4124,
      "Ġdivid": 4125,
      "ĠPublic": 4126,
      "Ġhappen": 4127,
      "ĠDon": 4128,
      "ĠJapanese": 4129,
      "ĠPal": 4130,
      "ĠProgram": 4131,
      "Ġurban": 4132,
      "iance": 4133,
      "ophy": 4134,
      "ĠWeb": 4135,
      "Ġapproximately": 4136,
      "Ġpick": 4137,
      "care": 4138,
      "Ġexperiences": 4139,
      "Ġ2015": 4140,
      "Ġplastic": 4141,
      "ken": 4142,
      "char": 4143,
      "Ġâ": 4144,
      "ĠCur": 4145,
      "ĠUN": 4146,
      "change": 4147,
      "Ġeasier": 4148,
      "cast": 4149,
      "Ġexplore": 4150,
      "ĠBra": 4151,
      "Ġtruth": 4152,
      "Ġutil": 4153,
      "enth": 4154,
      "Ġneu": 4155,
      "Ġmedicine": 4156,
      "ĠJames": 4157,
      "Ġresource": 4158,
      "Ġglass": 4159,
      "ares": 4160,
      "Ġdecades": 4161,
      "ris": 4162,
      "Ġrot": 4163,
      "ologist": 4164,
      "Ġcand": 4165,
      "Ġdestroy": 4166,
      "ube": 4167,
      "ulum": 4168,
      "Ġindustrial": 4169,
      "ĠRev": 4170,
      "iated": 4171,
      "Ġlegis": 4172,
      "Ġactual": 4173,
      "zz": 4174,
      "ĠSee": 4175,
      "uit": 4176,
      "Ġsave": 4177,
      "ĠDec": 4178,
      "Ġemphas": 4179,
      "Ġdyn": 4180,
      "ĠAut": 4181,
      "ĠVol": 4182,
      "ĠSpec": 4183,
      "Ġreality": 4184,
      "Ġliqu": 4185,
      "isation": 4186,
      "ĠInter": 4187,
      "Ġ2005": 4188,
      "Ġpopulations": 4189,
      "Ġconducted": 4190,
      "Ġstream": 4191,
      "Ġmo": 4192,
      "ĠMor": 4193,
      "35": 4194,
      "Ġhom": 4195,
      "iant": 4196,
      "Ġvary": 4197,
      "They": 4198,
      "Ġfaith": 4199,
      "Ġbodies": 4200,
      "Ġmoved": 4201,
      "Ġbank": 4202,
      "Ġintroduced": 4203,
      "Ġslight": 4204,
      "ida": 4205,
      "uses": 4206,
      "Ġserve": 4207,
      "Ġrelease": 4208,
      "Ġdecisions": 4209,
      "ĠMich": 4210,
      "erate": 4211,
      "Ar": 4212,
      "Ġalternative": 4213,
      "Ġexperiment": 4214,
      "Ġves": 4215,
      "Ġchallenge": 4216,
      "Ġbecoming": 4217,
      "Ġcycle": 4218,
      "Ġmer": 4219,
      "Ġnuclear": 4220,
      "Ġrecords": 4221,
      "ĠPlan": 4222,
      "Ġgene": 4223,
      "ĠCouncil": 4224,
      "Ġbed": 4225,
      "Ġspeech": 4226,
      "Ġestimated": 4227,
      "Ġign": 4228,
      "Ġdisorders": 4229,
      "Ġdistribution": 4230,
      "Ġperformed": 4231,
      "ĠMat": 4232,
      "ĠLet": 4233,
      "antic": 4234,
      "Ġnovel": 4235,
      "Ġassessment": 4236,
      "Ġfig": 4237,
      "Ġtopic": 4238,
      "Ġnutrition": 4239,
      "Ġbuildings": 4240,
      "Ġaspects": 4241,
      "Ġelectricity": 4242,
      "Ġfrequently": 4243,
      "ĠMary": 4244,
      "Ġremove": 4245,
      "Ġkid": 4246,
      "Ġintellig": 4247,
      "Ġagg": 4248,
      "Ġmetal": 4249,
      "Ġmag": 4250,
      "Ġopin": 4251,
      "Ġsexual": 4252,
      "clus": 4253,
      "Ġ80": 4254,
      "Ġfields": 4255,
      "ously": 4256,
      "raw": 4257,
      "imens": 4258,
      "apers": 4259,
      "ĠDavid": 4260,
      "Â°": 4261,
      "Ġ190": 4262,
      "Ġpul": 4263,
      "do": 4264,
      "Ġindependent": 4265,
      "Ġrecommended": 4266,
      "Ph": 4267,
      "roph": 4268,
      "Ġfilm": 4269,
      "ĠCollege": 4270,
      "unction": 4271,
      "asks": 4272,
      "Ġcontrast": 4273,
      "ulf": 4274,
      "othes": 4275,
      "Ġgraph": 4276,
      "ĠFound": 4277,
      "Ġvitamin": 4278,
      "Ġ2016": 4279,
      "Ġsample": 4280,
      "Ġreference": 4281,
      "ET": 4282,
      "ĠChe": 4283,
      "ĠRetrieved": 4284,
      "Ġchronic": 4285,
      "Ġreleased": 4286,
      "Ġwidely": 4287,
      "Ġroot": 4288,
      "bal": 4289,
      "Ġcombination": 4290,
      "Ġnotes": 4291,
      "ĠOver": 4292,
      "ĠDes": 4293,
      "Ġflood": 4294,
      "Ġbuy": 4295,
      "Ġhomes": 4296,
      "Ġpresident": 4297,
      "order": 4298,
      "Ġ2014": 4299,
      "Ġcausing": 4300,
      "ĠChildren": 4301,
      "Ġesc": 4302,
      "Ġparty": 4303,
      "Ġoperations": 4304,
      "cular": 4305,
      "ĠGreek": 4306,
      "icial": 4307,
      "Ġletter": 4308,
      "Ġdoub": 4309,
      "Ġoxygen": 4310,
      "ĠDevelopment": 4311,
      "porary": 4312,
      "Ġclearly": 4313,
      "ĠNet": 4314,
      "Ġorganic": 4315,
      "erved": 4316,
      "PS": 4317,
      "45": 4318,
      "ressive": 4319,
      "Ġtransl": 4320,
      "Ġhousehold": 4321,
      "Ġtemperatures": 4322,
      "tical": 4323,
      "Ġtour": 4324,
      "ager": 4325,
      "rant": 4326,
      "Ġdesp": 4327,
      "ocal": 4328,
      "met": 4329,
      "Ġnumerous": 4330,
      "Ġbottom": 4331,
      "Ġconnected": 4332,
      "ologists": 4333,
      "Ġstore": 4334,
      "ped": 4335,
      "Ġkilled": 4336,
      "olid": 4337,
      "Ġocean": 4338,
      "ias": 4339,
      "Ġradio": 4340,
      "Sh": 4341,
      "Ġresulting": 4342,
      "works": 4343,
      "Ġsetting": 4344,
      "rest": 4345,
      "Ġdiscussion": 4346,
      "Ġwanted": 4347,
      "Ġtrust": 4348,
      "Ġrisks": 4349,
      "Ġdogs": 4350,
      "Ġtechnique": 4351,
      "Ġlived": 4352,
      "tered": 4353,
      "ĠTex": 4354,
      "ructure": 4355,
      "Ġdrive": 4356,
      "Ġchanging": 4357,
      "Ġappe": 4358,
      "ĠHuman": 4359,
      "Ġliterature": 4360,
      "olved": 4361,
      "Ġprefer": 4362,
      "Ġcampaign": 4363,
      "Ġemail": 4364,
      "ĠRel": 4365,
      "raction": 4366,
      "Ġ#": 4367,
      "Ġterrit": 4368,
      "roup": 4369,
      "Ġmic": 4370,
      "Ġfailure": 4371,
      "ognitive": 4372,
      "Ġnoted": 4373,
      "Ġhear": 4374,
      "Ġthr": 4375,
      "Ġunivers": 4376,
      "Ġcreation": 4377,
      "ĠSam": 4378,
      "Ġcovered": 4379,
      "otes": 4380,
      "Ġgets": 4381,
      "elines": 4382,
      "Ġlayer": 4383,
      "ĠSpanish": 4384,
      "Ġminor": 4385,
      "Ġviolence": 4386,
      "Ġpartners": 4387,
      "Ġstarting": 4388,
      "33": 4389,
      "Ġisol": 4390,
      "Ġtrig": 4391,
      "ilit": 4392,
      "erences": 4393,
      "atically": 4394,
      "Ġprepar": 4395,
      "Ġturned": 4396,
      "ĠTur": 4397,
      "Ġbattle": 4398,
      "EM": 4399,
      "ĠRepublic": 4400,
      "AM": 4401,
      "ĠGovernment": 4402,
      "Ġanyone": 4403,
      "Ġpolicies": 4404,
      "Ġparticipants": 4405,
      "Ġradiation": 4406,
      "ĠMuseum": 4407,
      "Ġinjury": 4408,
      "Ġdrop": 4409,
      "ieces": 4410,
      "ĠAv": 4411,
      "Ġinitial": 4412,
      "Ġsurgery": 4413,
      "Ġnor": 4414,
      "ĠPaul": 4415,
      "Ġauthors": 4416,
      "Ġtum": 4417,
      "Ġvessel": 4418,
      "key": 4419,
      "ĠFood": 4420,
      "Ġready": 4421,
      "ii": 4422,
      "lick": 4423,
      "Ġreducing": 4424,
      "Ġsolutions": 4425,
      "Ġdistinct": 4426,
      "ĠSocial": 4427,
      "rows": 4428,
      "Ġ29": 4429,
      "anging": 4430,
      "ĠHIV": 4431,
      "Ġconnection": 4432,
      "Ġburn": 4433,
      "onds": 4434,
      "Ġ186": 4435,
      "Ġinternal": 4436,
      "Ġdegrees": 4437,
      "Ġsav": 4438,
      "mark": 4439,
      "Ġreplace": 4440,
      "iveness": 4441,
      "Ġreprodu": 4442,
      "Ġtim": 4443,
      "Ġarm": 4444,
      "ĠCath": 4445,
      "Ġded": 4446,
      "Ġupper": 4447,
      "ios": 4448,
      "ij": 4449,
      "Ġdri": 4450,
      "ĠUnder": 4451,
      "ĠWork": 4452,
      "nam": 4453,
      "Ġmessage": 4454,
      "Ġmeeting": 4455,
      "hetic": 4456,
      "Ġfreedom": 4457,
      "ĠOff": 4458,
      "Ġphysic": 4459,
      "Ġinflamm": 4460,
      "essor": 4461,
      "Ġmostly": 4462,
      "Ġreferred": 4463,
      "Ġcounter": 4464,
      "Ġtrou": 4465,
      "Ġexpression": 4466,
      "ndrome": 4467,
      "Ġhappens": 4468,
      "ĠTherefore": 4469,
      "Ġgenes": 4470,
      "Äģ": 4471,
      "Ġtooth": 4472,
      "Ġremoved": 4473,
      "Ġannual": 4474,
      "ieties": 4475,
      "osystem": 4476,
      "ception": 4477,
      "Ġinvolves": 4478,
      "Ġcollege": 4479,
      "Ġshap": 4480,
      "ault": 4481,
      "ĠGeorge": 4482,
      "According": 4483,
      "cop": 4484,
      "och": 4485,
      "Ġwin": 4486,
      "urance": 4487,
      "OS": 4488,
      "Ġdangerous": 4489,
      "Ġplease": 4490,
      "Ġstatement": 4491,
      "Ġbackground": 4492,
      "Ġcircum": 4493,
      "Ġexactly": 4494,
      "ĠRober": 4495,
      "Ġtrend": 4496,
      "Ġfinding": 4497,
      "lease": 4498,
      "Ġwhom": 4499,
      "Ġstorage": 4500,
      "iverse": 4501,
      "Ġrelationships": 4502,
      "ĠOb": 4503,
      "Ġtrib": 4504,
      "Ġhorm": 4505,
      "Ġmentioned": 4506,
      "78": 4507,
      "Ġconv": 4508,
      "However": 4509,
      "ĠFore": 4510,
      "ĠProject": 4511,
      "Ġvolume": 4512,
      "ressed": 4513,
      "Ġproperly": 4514,
      "with": 4515,
      "Ġisland": 4516,
      "Ġoption": 4517,
      "ĠMount": 4518,
      "Ġreligion": 4519,
      "Ġload": 4520,
      "Ġfeeling": 4521,
      "Ġprinciples": 4522,
      "Ġoutput": 4523,
      "Ġvul": 4524,
      "Ġsand": 4525,
      "ĠAir": 4526,
      "Ġupd": 4527,
      "Ġencourage": 4528,
      "Ġgames": 4529,
      "Ġhelped": 4530,
      "Ġclasses": 4531,
      "Ġdetermined": 4532,
      "Ġunf": 4533,
      "Ġheard": 4534,
      "Ġadjust": 4535,
      "Ġadvantage": 4536,
      "Ġinfections": 4537,
      "Ġexcell": 4538,
      "Ġfine": 4539,
      "Ġthick": 4540,
      "ĠTest": 4541,
      "Ġsem": 4542,
      "Ġclick": 4543,
      "ĠCourt": 4544,
      "Ġpal": 4545,
      "orial": 4546,
      "oyal": 4547,
      "za": 4548,
      "ĠOnce": 4549,
      "Ġpric": 4550,
      "ĠIsland": 4551,
      "Ġconfirm": 4552,
      "ortunately": 4553,
      "Ġscen": 4554,
      "Ġadvanced": 4555,
      "Ġmathemat": 4556,
      "Ġdram": 4557,
      "atform": 4558,
      "ander": 4559,
      "stitution": 4560,
      "ĠJews": 4561,
      "ishing": 4562,
      "rum": 4563,
      "Ġexposed": 4564,
      "Ġrace": 4565,
      "Ġinvolve": 4566,
      "ping": 4567,
      "ux": 4568,
      "mal": 4569,
      "ĠSun": 4570,
      "Ġacademic": 4571,
      "Ġgrass": 4572,
      "Ġunits": 4573,
      "Ġcore": 4574,
      "Ġalg": 4575,
      "isher": 4576,
      "ĠInf": 4577,
      "Ġinfluen": 4578,
      "Ġ90": 4579,
      "Ġserved": 4580,
      "75": 4581,
      "Ġexperts": 4582,
      "Ġdescribe": 4583,
      "ss": 4584,
      "rog": 4585,
      "leg": 4586,
      "riculum": 4587,
      "Ġdie": 4588,
      "uration": 4589,
      "Ġelimin": 4590,
      "Ġregarding": 4591,
      "Ġincorpor": 4592,
      "ĠWhy": 4593,
      "riage": 4594,
      "ĠMars": 4595,
      "Ġconservation": 4596,
      "Ġleads": 4597,
      "Ġkept": 4598,
      "Ġanxiety": 4599,
      "Ġcomprehens": 4600,
      "Ġexperienced": 4601,
      "Ġgrant": 4602,
      "Ġ2004": 4603,
      "Ġbeautiful": 4604,
      "Ġprocessing": 4605,
      "Ġseed": 4606,
      "Ġbelong": 4607,
      "Ġpages": 4608,
      "Ġlandsc": 4609,
      "Ġmeat": 4610,
      "rep": 4611,
      "Ġreb": 4612,
      "Ġnorthern": 4613,
      "Ġpreviously": 4614,
      "Ġ2017": 4615,
      "alled": 4616,
      "Ġship": 4617,
      "Ġinh": 4618,
      "Ġamounts": 4619,
      "road": 4620,
      "Ġinterpret": 4621,
      "ĠPort": 4622,
      "ĠMexico": 4623,
      "Ġlung": 4624,
      "Ġseeds": 4625,
      "Ġdefic": 4626,
      "ĠPhys": 4627,
      "Ġdepending": 4628,
      "Ġarticles": 4629,
      "Ġreaction": 4630,
      "ĠOrgan": 4631,
      "uing": 4632,
      "Ġdecided": 4633,
      "ĠAsia": 4634,
      "umn": 4635,
      "Ġsouthern": 4636,
      "Ġprepared": 4637,
      "Ġsynt": 4638,
      "Here": 4639,
      "Ġlinked": 4640,
      "Res": 4641,
      "ĠService": 4642,
      "Ġsolid": 4643,
      "ĠIts": 4644,
      "Ġsort": 4645,
      "Sp": 4646,
      "oting": 4647,
      "ago": 4648,
      "Ġrelevant": 4649,
      "ĠHen": 4650,
      "Ġinput": 4651,
      "Ġ70": 4652,
      "itz": 4653,
      "ĠGra": 4654,
      "mat": 4655,
      "ĠLa": 4656,
      "Ġinterested": 4657,
      "urt": 4658,
      "Ġconflict": 4659,
      "36": 4660,
      "berg": 4661,
      "Ġhour": 4662,
      "Ġpollution": 4663,
      "well": 4664,
      "Ġdatab": 4665,
      "onic": 4666,
      "Ġoperation": 4667,
      "Ġvolunt": 4668,
      "Ġfarmers": 4669,
      "ributed": 4670,
      "uted": 4671,
      "Ġpromote": 4672,
      "ĠRich": 4673,
      "Ġatmosphere": 4674,
      "cers": 4675,
      "Ġjour": 4676,
      "Ġofficial": 4677,
      "place": 4678,
      "Ġround": 4679,
      "ategy": 4680,
      "Ġspot": 4681,
      "ĠTexas": 4682,
      "Ġprofession": 4683,
      "wood": 4684,
      "New": 4685,
      "inate": 4686,
      "Ġgod": 4687,
      "Ġsaying": 4688,
      "ta": 4689,
      "Many": 4690,
      "Ġspent": 4691,
      "Ġmist": 4692,
      "Ġcalc": 4693,
      "Ġobvious": 4694,
      "Ġwealth": 4695,
      "board": 4696,
      ".;": 4697,
      "ĠMal": 4698,
      "Ġmanufacture": 4699,
      "Ġessay": 4700,
      "Ġsquare": 4701,
      "Ġwest": 4702,
      "Ġeggs": 4703,
      "ams": 4704,
      "CC": 4705,
      "kin": 4706,
      "ĠMark": 4707,
      "Ġexpert": 4708,
      "tes": 4709,
      "Ġmel": 4710,
      "Ġmeant": 4711,
      "ya": 4712,
      "Ġcere": 4713,
      "That": 4714,
      "Ġphase": 4715,
      "Ġtransform": 4716,
      "Ġpresc": 4717,
      "ĠDem": 4718,
      "Ġcompleted": 4719,
      "Ġstrategy": 4720,
      "astern": 4721,
      "Ġdiss": 4722,
      "Ġconcepts": 4723,
      "Ġconcerns": 4724,
      "Ġhelping": 4725,
      "Ġconcern": 4726,
      "Ġlanguages": 4727,
      "mp": 4728,
      "Ġhearing": 4729,
      "aughter": 4730,
      "Ġbud": 4731,
      "Ġmotor": 4732,
      "which": 4733,
      "ĠEv": 4734,
      "Ġfol": 4735,
      "Ġemotional": 4736,
      "Con": 4737,
      "Ġgender": 4738,
      "Ġeffectively": 4739,
      "Ġconclud": 4740,
      "Ġsignal": 4741,
      "Ġconsult": 4742,
      "Ġpret": 4743,
      "rans": 4744,
      "ĠIslam": 4745,
      "ĠST": 4746,
      "zing": 4747,
      "RO": 4748,
      "Ġcomfort": 4749,
      "Ġcoal": 4750,
      "Ġinvent": 4751,
      "ria": 4752,
      "ĠAcad": 4753,
      "Ġengineering": 4754,
      "vision": 4755,
      "nic": 4756,
      "ded": 4757,
      "ĠSer": 4758,
      "ĠBel": 4759,
      "ifying": 4760,
      "acific": 4761,
      "Ġsong": 4762,
      "Why": 4763,
      "Ġimproved": 4764,
      "ĠStudents": 4765,
      "Ġprocedure": 4766,
      "Ġmanner": 4767,
      "Ġreached": 4768,
      "Ġpieces": 4769,
      "Ġlic": 4770,
      "Ġaid": 4771,
      "Ġpun": 4772,
      "Ġmanage": 4773,
      "ĠJer": 4774,
      "Ġsustainable": 4775,
      "onomic": 4776,
      "Ġmath": 4777,
      "rete": 4778,
      "Although": 4779,
      "Ġconver": 4780,
      "iling": 4781,
      "ball": 4782,
      "Ġinstitutions": 4783,
      "Ġcredit": 4784,
      "ormal": 4785,
      "ĠSub": 4786,
      "Ġchemicals": 4787,
      "Ġstation": 4788,
      "Ġgrade": 4789,
      "Ġ2003": 4790,
      "Ġproposed": 4791,
      "Ġefficiency": 4792,
      "Ġsupported": 4793,
      "ĠHel": 4794,
      "Ġnav": 4795,
      "ĠBer": 4796,
      "Ġhop": 4797,
      "oking": 4798,
      "Ġappoint": 4799,
      "Ġseek": 4800,
      "Ġintended": 4801,
      "Ġvegetables": 4802,
      "Ã¡": 4803,
      "Ġcharge": 4804,
      "iology": 4805,
      "Ġwet": 4806,
      "Ġlib": 4807,
      "Ġawareness": 4808,
      "Ġdiagnosis": 4809,
      "Ġdrinking": 4810,
      "100": 4811,
      "ĠLou": 4812,
      "Ġvaccine": 4813,
      "Ġmainly": 4814,
      "Ġauthority": 4815,
      "Ġdiscover": 4816,
      "standing": 4817,
      "rence": 4818,
      "38": 4819,
      "Ġpip": 4820,
      "Ġhospital": 4821,
      "Ġclos": 4822,
      "ample": 4823,
      "ĠVirgin": 4824,
      "des": 4825,
      "Our": 4826,
      "Ġkill": 4827,
      "ules": 4828,
      "Ġcorresp": 4829,
      "Ġpurposes": 4830,
      "ĠBas": 4831,
      "ĠJe": 4832,
      "Ġbrother": 4833,
      "ĠAD": 4834,
      "ĠWhite": 4835,
      "Ġyellow": 4836,
      "Ġdefinition": 4837,
      "Ġfrequency": 4838,
      "Ġsecret": 4839,
      "Ġcast": 4840,
      "atric": 4841,
      "ĠMiss": 4842,
      "Ġowners": 4843,
      "ek": 4844,
      "oper": 4845,
      "uable": 4846,
      "Ġstorm": 4847,
      "Ġyouth": 4848,
      "amental": 4849,
      "osite": 4850,
      "Ġprofessor": 4851,
      "Ġsufficient": 4852,
      "Ġlooks": 4853,
      "otic": 4854,
      "ĠNASA": 4855,
      "Ġtoxic": 4856,
      "Ġfinally": 4857,
      "Ġcontinues": 4858,
      "Ġphenomen": 4859,
      "Cl": 4860,
      "rates": 4861,
      "Ġnotice": 4862,
      "ĠDi": 4863,
      "lig": 4864,
      "ĠBritain": 4865,
      "Ġdoll": 4866,
      "ĠRem": 4867,
      "vis": 4868,
      "'ll": 4869,
      "alle": 4870,
      "Ġpractical": 4871,
      "Ġpark": 4872,
      "Ġcomment": 4873,
      "Ġallowing": 4874,
      "ishes": 4875,
      "Ġwaters": 4876,
      "Now": 4877,
      "ounced": 4878,
      "Ġsamples": 4879,
      "Ġ35": 4880,
      "Ġformation": 4881,
      "clusion": 4882,
      "ĠSen": 4883,
      "Ġmort": 4884,
      "From": 4885,
      "Ġrecorded": 4886,
      "Ġshared": 4887,
      "akers": 4888,
      "ears": 4889,
      "Ġtechnical": 4890,
      "ĠIr": 4891,
      "ĠEvery": 4892,
      "eline": 4893,
      "Ġvulner": 4894,
      "Ġarmy": 4895,
      "Ġlesson": 4896,
      "Ġcombined": 4897,
      "Ġbegins": 4898,
      "Ġdro": 4899,
      "Ġforced": 4900,
      "Ġwonder": 4901,
      "ĠArab": 4902,
      "ags": 4903,
      "Ġmotiv": 4904,
      "Ġreduction": 4905,
      "Ġsusp": 4906,
      "Ġoffered": 4907,
      "Ġrenew": 4908,
      "ĠCivil": 4909,
      "Ġcoord": 4910,
      "Ġprimarily": 4911,
      "Ġhit": 4912,
      "Ġlargely": 4913,
      "ĠLatin": 4914,
      "Ġplatform": 4915,
      "ĠSal": 4916,
      "Ġheight": 4917,
      "eters": 4918,
      "Ġfacts": 4919,
      "gl": 4920,
      "ĠMedicine": 4921,
      "AD": 4922,
      "itors": 4923,
      "rations": 4924,
      "Ġfoss": 4925,
      "Ġexistence": 4926,
      "Ġindicate": 4927,
      "Ġelectrical": 4928,
      "ĠCentral": 4929,
      "Ġfort": 4930,
      "anch": 4931,
      "aker": 4932,
      "rier": 4933,
      "ht": 4934,
      "CO": 4935,
      "Ġtaught": 4936,
      "Ġmorning": 4937,
      "Ġther": 4938,
      "Ġmaster": 4939,
      "Ġdynam": 4940,
      "Ġeast": 4941,
      "ĠThomas": 4942,
      "ĠHol": 4943,
      "ĠMac": 4944,
      "Ġremained": 4945,
      "Ġoccurred": 4946,
      "ĠMart": 4947,
      "Ġjobs": 4948,
      "ras": 4949,
      "Ġextent": 4950,
      "comes": 4951,
      "Most": 4952,
      "arrow": 4953,
      "ĠOld": 4954,
      "ĠFranc": 4955,
      "34": 4956,
      "Ġsector": 4957,
      "ĠSpace": 4958,
      "Ġbrief": 4959,
      "Ġecosystem": 4960,
      "Ġsubjects": 4961,
      "Ġflex": 4962,
      "ossible": 4963,
      "Ġ2001": 4964,
      "Ġkinds": 4965,
      "Ġhttps": 4966,
      "gra": 4967,
      "ixt": 4968,
      "Ġideal": 4969,
      "ĠEnergy": 4970,
      "US": 4971,
      "ĠArmy": 4972,
      "west": 4973,
      "ĠMr": 4974,
      "ĠMet": 4975,
      "Ġbird": 4976,
      "inger": 4977,
      "Ġcontribute": 4978,
      "ĠAtl": 4979,
      "Ġfocused": 4980,
      "espite": 4981,
      "Ġsituations": 4982,
      "ĠDist": 4983,
      "Ġcris": 4984,
      "Ġfib": 4985,
      "Ġtreatments": 4986,
      "acters": 4987,
      "ĠDise": 4988,
      "EL": 4989,
      "ĠCle": 4990,
      "roke": 4991,
      "Ab": 4992,
      "ey": 4993,
      "Ġnations": 4994,
      "Ġstraight": 4995,
      "ĠBay": 4996,
      "ĠMedical": 4997,
      "rian": 4998,
      "ĠCam": 4999,
      "Ġbright": 5000,
      "ĠCommission": 5001,
      "ĠNews": 5002,
      "Ġcenturies": 5003,
      "ague": 5004,
      "Ġcertainly": 5005,
      "inent": 5006,
      "oo": 5007,
      "aturally": 5008,
      "Americ": 5009,
      "tion": 5010,
      "Ġperman": 5011,
      "ulating": 5012,
      "Ġsalt": 5013,
      "'ve": 5014,
      "Ġ1990": 5015,
      "ĠFre": 5016,
      "Ġhyper": 5017,
      "inf": 5018,
      "name": 5019,
      "Ġblog": 5020,
      "Ġconsequences": 5021,
      "Ġtasks": 5022,
      "Ġshowing": 5023,
      "ado": 5024,
      "olute": 5025,
      "Ġliquid": 5026,
      "Ġspecifically": 5027,
      "ĠBen": 5028,
      "Ġspend": 5029,
      "Ġoperating": 5030,
      "Ġmuscles": 5031,
      "Ġcollected": 5032,
      "nel": 5033,
      "Ġidentity": 5034,
      "ĠJud": 5035,
      "Ġraised": 5036,
      "Ġfaster": 5037,
      "what": 5038,
      "Ġadvance": 5039,
      "RI": 5040,
      "Ġiniti": 5041,
      "Ġattacks": 5042,
      "Ġ2002": 5043,
      "ĠFurther": 5044,
      "Ġfelt": 5045,
      "Ġemergency": 5046,
      "99": 5047,
      "Ġmotion": 5048,
      "Ġexcellent": 5049,
      "Ġlov": 5050,
      "ipped": 5051,
      "Ġrecy": 5052,
      "Ġdouble": 5053,
      "Ġdigest": 5054,
      "Ġtro": 5055,
      "rapy": 5056,
      "Ġrevolution": 5057,
      "going": 5058,
      "OT": 5059,
      "Ġkeeping": 5060,
      "Ġ*": 5061,
      "Ġquar": 5062,
      "ĠDirect": 5063,
      "eria": 5064,
      "ĠMass": 5065,
      "Ġsettle": 5066,
      "Ġpros": 5067,
      "yright": 5068,
      "Ġresponsibility": 5069,
      "Ġotherwise": 5070,
      "cript": 5071,
      "Ġpersons": 5072,
      "Ġcareer": 5073,
      "uls": 5074,
      "Ġparticles": 5075,
      "Ġwife": 5076,
      "Ġbill": 5077,
      "Ġproteins": 5078,
      "Ġgoods": 5079,
      "ensus": 5080,
      "Ġmeasured": 5081,
      "ael": 5082,
      "48": 5083,
      "umin": 5084,
      "istan": 5085,
      "Ġshar": 5086,
      "ĠClass": 5087,
      "ĠFlor": 5088,
      "lar": 5089,
      "Ġletters": 5090,
      "ework": 5091,
      "Ġsounds": 5092,
      "Ġimpacts": 5093,
      "that": 5094,
      "osen": 5095,
      "Ġlinks": 5096,
      "rich": 5097,
      "osa": 5098,
      "Ġclim": 5099,
      "Ġmetab": 5100,
      "Ġdetailed": 5101,
      "enses": 5102,
      "Ġnerv": 5103,
      "Ġvast": 5104,
      "Ġagricultural": 5105,
      "Ġnutrients": 5106,
      "Ġflowers": 5107,
      "Ġdespite": 5108,
      "Ġfif": 5109,
      "ĠKore": 5110,
      "ĠTechnology": 5111,
      "ĠSecond": 5112,
      "anges": 5113,
      "AP": 5114,
      "Ġsurrounding": 5115,
      "Ġsyn": 5116,
      "Ġrefers": 5117,
      "unk": 5118,
      "Ġleader": 5119,
      "Ġcomponent": 5120,
      "ND": 5121,
      "ĠQue": 5122,
      "Ġfacilities": 5123,
      "Ġbiological": 5124,
      "Ġmonitoring": 5125,
      "Ġadvice": 5126,
      "Ġkm": 5127,
      "ĠDef": 5128,
      "Pl": 5129,
      "col": 5130,
      "right": 5131,
      "Ġhelpful": 5132,
      "Ġmere": 5133,
      "ĠBook": 5134,
      "itness": 5135,
      "othing": 5136,
      "Ġgrand": 5137,
      "Ġexternal": 5138,
      "No": 5139,
      "Ġtrial": 5140,
      "Ġexplan": 5141,
      "ĠBible": 5142,
      "olars": 5143,
      "iced": 5144,
      "oughly": 5145,
      "igenous": 5146,
      "Ġvoice": 5147,
      "Ġkil": 5148,
      "Ġresist": 5149,
      "Ġsnow": 5150,
      "ĠPacific": 5151,
      "ĠLife": 5152,
      "Ġstone": 5153,
      "point": 5154,
      "Ġpil": 5155,
      "Ġaffects": 5156,
      "Ġroll": 5157,
      "ails": 5158,
      "Ġhaz": 5159,
      "Ġonto": 5160,
      "ĠÃ": 5161,
      "Ġsuggested": 5162,
      "Im": 5163,
      "Ġvent": 5164,
      "BC": 5165,
      "Ġcert": 5166,
      "Ġkn": 5167,
      "Ġperiods": 5168,
      "Ġvital": 5169,
      "ville": 5170,
      "ĠBoth": 5171,
      "Ġthin": 5172,
      "Ġcharacters": 5173,
      "Ġbow": 5174,
      "Ġapparent": 5175,
      "Ġimmig": 5176,
      "ompl": 5177,
      "Ġfamiliar": 5178,
      "ĠOp": 5179,
      "Ġvalid": 5180,
      "Ġexplains": 5181,
      "down": 5182,
      "ĠLearning": 5183,
      "ĠMil": 5184,
      "ION": 5185,
      "Ġgreatest": 5186,
      "Ġsend": 5187,
      "Ġtypical": 5188,
      "Ġoral": 5189,
      "ĠBudd": 5190,
      "MS": 5191,
      "ometimes": 5192,
      "field": 5193,
      "].": 5194,
      "Ġaren": 5195,
      "ĠBur": 5196,
      "win": 5197,
      "Ġhabitat": 5198,
      "Ġslightly": 5199,
      "Ġfundamental": 5200,
      "inant": 5201,
      "Ġsatis": 5202,
      "Ġsche": 5203,
      "aks": 5204,
      "39": 5205,
      "Ġlose": 5206,
      "Ġgirls": 5207,
      "Ġcognitive": 5208,
      "Ġaccurate": 5209,
      "Ġstudied": 5210,
      "Ġplayed": 5211,
      "hi": 5212,
      "Ġmaximum": 5213,
      "ĠFoundation": 5214,
      "Ġinterests": 5215,
      "pat": 5216,
      "Ġwestern": 5217,
      "Ġdivided": 5218,
      "Ġmoist": 5219,
      "band": 5220,
      "Ġincreasingly": 5221,
      "Ġperspective": 5222,
      "Ġcontrolled": 5223,
      "ĠElect": 5224,
      "Ġrail": 5225,
      "37": 5226,
      "Ġfloor": 5227,
      "Ġtested": 5228,
      "Ġsubstant": 5229,
      "oviet": 5230,
      "Ġthoughts": 5231,
      "Ġpregnancy": 5232,
      "Ġfluid": 5233,
      "Ġnit": 5234,
      "Ġrequest": 5235,
      "ĠInformation": 5236,
      "inding": 5237,
      "ĠTwo": 5238,
      "Ġfollows": 5239,
      "ĠStand": 5240,
      "Ġreturned": 5241,
      "Ġsubsequ": 5242,
      "Ġofficials": 5243,
      "Ġhappened": 5244,
      "Ġju": 5245,
      "Ġvehicle": 5246,
      "rastructure": 5247,
      "ache": 5248,
      "utive": 5249,
      "Ġdepends": 5250,
      "Ġflat": 5251,
      "resents": 5252,
      "Ġneighbor": 5253,
      "Ġinstrument": 5254,
      "Ġexplained": 5255,
      "Ġcrops": 5256,
      "Ġtopics": 5257,
      "ĠLake": 5258,
      "Ġliver": 5259,
      "Ġinstruction": 5260,
      "ĠSou": 5261,
      "Ġproport": 5262,
      "rolog": 5263,
      "ĠRobert": 5264,
      "Ġharvest": 5265,
      "Ġchann": 5266,
      "stronom": 5267,
      "ĠWind": 5268,
      "Ġlooked": 5269,
      "itage": 5270,
      "stood": 5271,
      "Ġprices": 5272,
      "roc": 5273,
      "Ġconvent": 5274,
      "Ġstars": 5275,
      "verty": 5276,
      "van": 5277,
      "Ġrural": 5278,
      "Ġfiles": 5279,
      "Ġpotentially": 5280,
      "omy": 5281,
      "ingly": 5282,
      "Ġdisapp": 5283,
      "Ġpoverty": 5284,
      "athy": 5285,
      "ificial": 5286,
      "Ġdiam": 5287,
      "ĠPsych": 5288,
      "gment": 5289,
      "Ġconscious": 5290,
      "burg": 5291,
      "hips": 5292,
      "Ġspl": 5293,
      "Ġconsists": 5294,
      "Ġfruits": 5295,
      "ĠToday": 5296,
      "ĠCatholic": 5297,
      "Ġconcerned": 5298,
      "Ġrecognized": 5299,
      "Ġdepth": 5300,
      "isp": 5301,
      "Ġobtained": 5302,
      "active": 5303,
      "More": 5304,
      "Ġcontaining": 5305,
      "Ġgovernments": 5306,
      "ĠSmith": 5307,
      "Ġpray": 5308,
      "Ġinterview": 5309,
      "ĠTreat": 5310,
      "atever": 5311,
      "Ġgrown": 5312,
      "ĠData": 5313,
      "asure": 5314,
      "fl": 5315,
      "Ġsin": 5316,
      "ĠÎ": 5317,
      "roid": 5318,
      "Ġtried": 5319,
      "Ġlik": 5320,
      "Ġstem": 5321,
      "Ġcrisis": 5322,
      "Ġphone": 5323,
      "Ġprotected": 5324,
      "Ġprinciple": 5325,
      "ancing": 5326,
      "ĠOut": 5327,
      "ĠCD": 5328,
      "Ġplaying": 5329,
      "44": 5330,
      "umber": 5331,
      "Ġhundreds": 5332,
      "Ġcurriculum": 5333,
      "Ġsen": 5334,
      "Ġwalls": 5335,
      "ĠCarol": 5336,
      "Ġapproaches": 5337,
      "Ġfle": 5338,
      "ĠNor": 5339,
      "Ġclosely": 5340,
      "gal": 5341,
      "ĠJose": 5342,
      "Ġprison": 5343,
      "Ġneut": 5344,
      "Ġrapidly": 5345,
      "celer": 5346,
      "Ġpaint": 5347,
      "li": 5348,
      "la": 5349,
      "Ġpig": 5350,
      "ĠSea": 5351,
      "ĠBC": 5352,
      "Ġtrain": 5353,
      "ING": 5354,
      "ĠMiddle": 5355,
      "Ġcontinuous": 5356,
      "Ġportion": 5357,
      "Ġdut": 5358,
      "Ġappeared": 5359,
      "ĠLand": 5360,
      "Ġimmun": 5361,
      "Ġelev": 5362,
      "ĠUsing": 5363,
      "Ġweap": 5364,
      "ĠCharles": 5365,
      "Ġpolice": 5366,
      "ĠNav": 5367,
      "Ġmedications": 5368,
      "Ġtips": 5369,
      "Ġsyndrome": 5370,
      "ĠWomen": 5371,
      "chers": 5372,
      "65": 5373,
      "Ġdial": 5374,
      "Another": 5375,
      "Ġinvestment": 5376,
      "Ġselected": 5377,
      "ĠMont": 5378,
      "eck": 5379,
      "oster": 5380,
      "Ġlatest": 5381,
      "Ġvisible": 5382,
      "Ġcardi": 5383,
      "ĠHam": 5384,
      "Ġ188": 5385,
      "Ġaccompl": 5386,
      "Ġclaims": 5387,
      "Ġappearance": 5388,
      "iled": 5389,
      "Ġrepresents": 5390,
      "ĠWell": 5391,
      "Ġ2018": 5392,
      "32": 5393,
      "ĠRussia": 5394,
      "ĠRussian": 5395,
      "Ġsatell": 5396,
      "ĠAnother": 5397,
      "ĠHenry": 5398,
      "Ġextract": 5399,
      "Ġresidents": 5400,
      "95": 5401,
      "Ġchief": 5402,
      "Ġdeliver": 5403,
      "Ġargument": 5404,
      "Do": 5405,
      "Ġprocedures": 5406,
      "ÃŃ": 5407,
      "anguage": 5408,
      "Ġspiritual": 5409,
      "TS": 5410,
      "cest": 5411,
      "oral": 5412,
      "ĠMem": 5413,
      "Ġconcentration": 5414,
      "inations": 5415,
      "Ġsuffering": 5416,
      "ellect": 5417,
      "icks": 5418,
      "ĠWild": 5419,
      "abil": 5420,
      "Ġpaid": 5421,
      "uke": 5422,
      "Ġband": 5423,
      "Ġrand": 5424,
      "ĠSoviet": 5425,
      "Ġdecrease": 5426,
      "Ġdirector": 5427,
      "Ġdiscussed": 5428,
      "Ġcrucial": 5429,
      "Ġstock": 5430,
      "Ġtitle": 5431,
      "Ġvaluable": 5432,
      "Ġgun": 5433,
      "Ġalt": 5434,
      "Ġcorrespond": 5435,
      "?âĢĿ": 5436,
      "Ġviews": 5437,
      "Ġreform": 5438,
      "Ġroots": 5439,
      "Ġsed": 5440,
      "Ġgar": 5441,
      "Ġassemb": 5442,
      "ulin": 5443,
      "Ġages": 5444,
      "liam": 5445,
      "zy": 5446,
      "ĠGoogle": 5447,
      "Ġfeelings": 5448,
      "De": 5449,
      "ĠFam": 5450,
      "Ġleaving": 5451,
      "Ġminimum": 5452,
      "ota": 5453,
      "Ġadvoc": 5454,
      "Ġformat": 5455,
      "Ġhunt": 5456,
      "mas": 5457,
      "state": 5458,
      "Ġknew": 5459,
      "Ġstated": 5460,
      "Ġ<": 5461,
      "Ġsides": 5462,
      "Ġmedium": 5463,
      "Ġabuse": 5464,
      "ĠLibrary": 5465,
      "Ġexpensive": 5466,
      "fall": 5467,
      "Ġfirm": 5468,
      "Ġdistingu": 5469,
      "Ġsick": 5470,
      "Ġcontem": 5471,
      "lers": 5472,
      "ascular": 5473,
      "Ġdeaths": 5474,
      "Ġ2020": 5475,
      "BN": 5476,
      "ĠUp": 5477,
      "Ġrandom": 5478,
      "Ġpump": 5479,
      "ĠEngine": 5480,
      "ĠDel": 5481,
      "ĠSuch": 5482,
      "Ġsimpl": 5483,
      "Ġpu": 5484,
      "Ġmoral": 5485,
      "Ġdiscovery": 5486,
      "Ġnaturally": 5487,
      "Ġwire": 5488,
      "Ġinches": 5489,
      "tenance": 5490,
      "ario": 5491,
      "ĠRef": 5492,
      "Ġ45": 5493,
      "Ġdocuments": 5494,
      "Ġbusinesses": 5495,
      "Ġregularly": 5496,
      "Ġsmart": 5497,
      "ĠRights": 5498,
      "Ind": 5499,
      "indu": 5500,
      "Ġfunding": 5501,
      "alian": 5502,
      "Ġfrag": 5503,
      "ĠLouis": 5504,
      "ĠCompany": 5505,
      "Ġrein": 5506,
      "Ġcircumst": 5507,
      "Ġdomestic": 5508,
      "racy": 5509,
      "ĠVirginia": 5510,
      "198": 5511,
      "ĠLike": 5512,
      "ĠEmp": 5513,
      "ĠDisc": 5514,
      "Ġadding": 5515,
      "Ġsoldiers": 5516,
      "stream": 5517,
      "anes": 5518,
      "DF": 5519,
      "Ġmovements": 5520,
      "Ġstret": 5521,
      "Ġdriving": 5522,
      "ĠSte": 5523,
      "ĠStudies": 5524,
      "alse": 5525,
      "âĢĻ.": 5526,
      "Ġjustice": 5527,
      "icit": 5528,
      "Ġlessons": 5529,
      "Ġoutcomes": 5530,
      "ĠInstead": 5531,
      "Ġcouple": 5532,
      "rants": 5533,
      "Ġagriculture": 5534,
      "free": 5535,
      "Ġwel": 5536,
      "ĠTem": 5537,
      "bing": 5538,
      "Ġsets": 5539,
      "Ġ2019": 5540,
      "Ġsan": 5541,
      "Ġ1999": 5542,
      "ĠEnvironmental": 5543,
      "Ġhorse": 5544,
      "Ġinternet": 5545,
      "Ġsecure": 5546,
      "Ġod": 5547,
      "Ġmillions": 5548,
      "ooth": 5549,
      "Ġparam": 5550,
      "Ġrecognize": 5551,
      "Ġcapable": 5552,
      "Ġcorpor": 5553,
      "Ġemployees": 5554,
      "Ġcolors": 5555,
      "Ġdiversity": 5556,
      "Ġadequ": 5557,
      "ĠMake": 5558,
      "Ġwear": 5559,
      "ĠSupp": 5560,
      "31": 5561,
      "Ġrecovery": 5562,
      "Ġexchange": 5563,
      "Ġsubstance": 5564,
      "rem": 5565,
      "bert": 5566,
      "Sc": 5567,
      "Ġshel": 5568,
      "inet": 5569,
      "Ġingred": 5570,
      "46": 5571,
      "omach": 5572,
      "teries": 5573,
      ".|": 5574,
      "Ġraise": 5575,
      "Ġinfected": 5576,
      "ĠControl": 5577,
      "ĠSum": 5578,
      "Ġsensitive": 5579,
      "Ġinflammation": 5580,
      "ĠNature": 5581,
      "bi": 5582,
      "Ġentirely": 5583,
      "attle": 5584,
      "ĠHistor": 5585,
      "76": 5586,
      "Ġsuffer": 5587,
      "Other": 5588,
      "ĠPost": 5589,
      "Ġinject": 5590,
      "Ġnarr": 5591,
      "liament": 5592,
      "ada": 5593,
      "TM": 5594,
      "cling": 5595,
      "Ġpure": 5596,
      "Ġlabel": 5597,
      "See": 5598,
      "Ġdu": 5599,
      "CS": 5600,
      "Ġbrown": 5601,
      "ĠOx": 5602,
      "Gen": 5603,
      "ola": 5604,
      "Ġtalking": 5605,
      "Ġimpossible": 5606,
      "Ġdistrict": 5607,
      "During": 5608,
      "Ġsecondary": 5609,
      "olf": 5610,
      "Te": 5611,
      "long": 5612,
      "Ġallerg": 5613,
      "Ġtrad": 5614,
      "Ġinfrastructure": 5615,
      "ka": 5616,
      "inn": 5617,
      "Ġlibrary": 5618,
      "Ġparties": 5619,
      "Ġaccepted": 5620,
      "Ġenhance": 5621,
      "Ġpush": 5622,
      "Ġstages": 5623,
      "dden": 5624,
      "ca": 5625,
      "ĠSaf": 5626,
      "olve": 5627,
      "Ġuniverse": 5628,
      "Ġgall": 5629,
      "Ġfacilit": 5630,
      "pping": 5631,
      "ĠFlorida": 5632,
      "Ġabsolute": 5633,
      "Ġincl": 5634,
      "Ġprecise": 5635,
      "ĠDiv": 5636,
      "Ġmit": 5637,
      "Ġclosed": 5638,
      "Ġrecon": 5639,
      "Ġdatabase": 5640,
      "ĠGroup": 5641,
      "HO": 5642,
      "oto": 5643,
      "Ġnetworks": 5644,
      "Ġexperiments": 5645,
      "cules": 5646,
      "esity": 5647,
      "Ġmyth": 5648,
      "Ġindex": 5649,
      "Ġaccomp": 5650,
      "Dr": 5651,
      "exp": 5652,
      "idden": 5653,
      "Ġnormally": 5654,
      "Ġfertil": 5655,
      "Ġnarrow": 5656,
      "Ġprevention": 5657,
      "ĠScient": 5658,
      "Ġpictures": 5659,
      "ĠManagement": 5660,
      "Ġcandid": 5661,
      "Ġbehaviour": 5662,
      "Ġflight": 5663,
      "Ġunlike": 5664,
      "500": 5665,
      "Ġ31": 5666,
      "Ġwarming": 5667,
      "Ġprem": 5668,
      "ĠOffice": 5669,
      "Ġintake": 5670,
      "Ġmoon": 5671,
      "Ġadopted": 5672,
      "Ġinterf": 5673,
      "Ġmamm": 5674,
      "Ġformal": 5675,
      "Ġmassive": 5676,
      "uilding": 5677,
      "ĠKen": 5678,
      "reed": 5679,
      "rid": 5680,
      "ypes": 5681,
      "ye": 5682,
      "ĠPC": 5683,
      "comp": 5684,
      "asp": 5685,
      "Ġchapter": 5686,
      "Ġcalls": 5687,
      "Ġmobile": 5688,
      "agues": 5689,
      "war": 5690,
      "ava": 5691,
      "Ġproducing": 5692,
      "Ġdescribes": 5693,
      "ĠAp": 5694,
      "Ġintelligence": 5695,
      "Ġopinion": 5696,
      "spec": 5697,
      "Ġgenerate": 5698,
      "Ġdiscrim": 5699,
      "Ġrecip": 5700,
      "Ġregional": 5701,
      "Ġwildlife": 5702,
      "Ġble": 5703,
      "Ġopened": 5704,
      "Ġoriginally": 5705,
      "Ġfigures": 5706,
      "Ġwors": 5707,
      "Ġrub": 5708,
      "ĠAlex": 5709,
      "osal": 5710,
      "Ġtraffic": 5711,
      "Ġselection": 5712,
      "Ġintroduction": 5713,
      "Ġwave": 5714,
      "ĠMo": 5715,
      "55": 5716,
      "ĠCommit": 5717,
      "Ġpossess": 5718,
      "Ġapart": 5719,
      "Us": 5720,
      "Ġlisted": 5721,
      "Ġchain": 5722,
      "anged": 5723,
      "Ġlifest": 5724,
      "Ġpref": 5725,
      "Ġpoet": 5726,
      "ston": 5727,
      "Ġsudden": 5728,
      "47": 5729,
      "ĠTer": 5730,
      "ĠBet": 5731,
      "Go": 5732,
      "Ġcoff": 5733,
      "Ġnan": 5734,
      "ĠKnow": 5735,
      "ocratic": 5736,
      "ibilities": 5737,
      "Ġspeaking": 5738,
      "Ġaircraft": 5739,
      "Ġtouch": 5740,
      "agers": 5741,
      "Ġworldwide": 5742,
      "Ġcomputers": 5743,
      "Ġmountain": 5744,
      "Ġhouses": 5745,
      "ĠConstitution": 5746,
      "olester": 5747,
      "ato": 5748,
      "Ġantibiot": 5749,
      "Ġbudget": 5750,
      "ĠFederal": 5751,
      "Ġvillage": 5752,
      "ĠLabor": 5753,
      "Ġtoler": 5754,
      "Ġunderstood": 5755,
      "Ġforests": 5756,
      "Ġdental": 5757,
      "Ġcreative": 5758,
      "normal": 5759,
      "ropical": 5760,
      "Ġbones": 5761,
      "Ġrepeated": 5762,
      "Ġ>": 5763,
      "Ġpossibly": 5764,
      "Ġleadership": 5765,
      "ait": 5766,
      "Ġworse": 5767,
      "Ġsurvival": 5768,
      "ditionally": 5769,
      "Ġdecline": 5770,
      "Ġextensive": 5771,
      "Ġunless": 5772,
      "Ġera": 5773,
      "Ġrevealed": 5774,
      "Ġtun": 5775,
      "organ": 5776,
      "Ġpossibility": 5777,
      "Ġsteel": 5778,
      "flow": 5779,
      "Ġlatter": 5780,
      "Ġamb": 5781,
      "orith": 5782,
      "Ġagencies": 5783,
      "Ġvehicles": 5784,
      "ctic": 5785,
      "abric": 5786,
      "ona": 5787,
      "Ġachieved": 5788,
      "Ġguidelines": 5789,
      "Ġancest": 5790,
      "Ġstick": 5791,
      "Ġprepare": 5792,
      "Ġnurs": 5793,
      "Ġfill": 5794,
      "osph": 5795,
      "rors": 5796,
      "add": 5797,
      "LE": 5798,
      "mic": 5799,
      "Ġmedication": 5800,
      "ĠMicro": 5801,
      "Ġsuc": 5802,
      "Ġmanufacturing": 5803,
      "Ġconsid": 5804,
      "ĠColumb": 5805,
      "ĠTHE": 5806,
      "Ġlandscape": 5807,
      "Ġfell": 5808,
      "Ġaw": 5809,
      "erals": 5810,
      "vironments": 5811,
      "Ġmarriage": 5812,
      "Ġaqu": 5813,
      "Ġpretty": 5814,
      "Ġcomprehensive": 5815,
      "struct": 5816,
      "Re": 5817,
      "Ġabund": 5818,
      "Ġwindow": 5819,
      "Ġstored": 5820,
      "My": 5821,
      "Ġimproving": 5822,
      "Ġagreement": 5823,
      "ĠPers": 5824,
      "Ġprotocol": 5825,
      "Ġplate": 5826,
      "Ġsupplement": 5827,
      "imer": 5828,
      "Ġsuitable": 5829,
      "hemical": 5830,
      "Ġdiverse": 5831,
      "ĠPower": 5832,
      "olesterol": 5833,
      "Ġreaders": 5834,
      "Ġcloud": 5835,
      "Ġleaf": 5836,
      "Ġtow": 5837,
      "apping": 5838,
      "ĠCanadian": 5839,
      "Ġrestrict": 5840,
      "lements": 5841,
      "Ġphr": 5842,
      "gent": 5843,
      "Ġminim": 5844,
      "ĠSl": 5845,
      "ĠBro": 5846,
      "Ġtal": 5847,
      "Ġdust": 5848,
      "Ġremaining": 5849,
      "abits": 5850,
      "Ġacts": 5851,
      "last": 5852,
      "ester": 5853,
      "Ġgather": 5854,
      "acts": 5855,
      "hist": 5856,
      "obe": 5857,
      "Ġroutine": 5858,
      "othe": 5859,
      "ĠReview": 5860,
      "ĠCommon": 5861,
      "Ġmarine": 5862,
      "aser": 5863,
      "Ġlands": 5864,
      "Ġgal": 5865,
      "ĠGood": 5866,
      "Ġassistance": 5867,
      "Ġequival": 5868,
      "rot": 5869,
      "Ġcopy": 5870,
      "Ġ1980": 5871,
      "Ġapprec": 5872,
      "ifies": 5873,
      "ums": 5874,
      "Ġmuseum": 5875,
      "ĠCare": 5876,
      "Ġinjuries": 5877,
      "Ġfilled": 5878,
      "throp": 5879,
      "ĠAtt": 5880,
      "ĠProv": 5881,
      "Ġtail": 5882,
      "being": 5883,
      "Ġbattery": 5884,
      "Ġsell": 5885,
      "Ġarms": 5886,
      "htm": 5887,
      "Ġchart": 5888,
      "ett": 5889,
      "ĠAbout": 5890,
      "49": 5891,
      "anda": 5892,
      "Ġindeed": 5893,
      "Ġdiscipl": 5894,
      "Ġtroops": 5895,
      "Ġexpressed": 5896,
      "Ġdoctors": 5897,
      "Ġax": 5898,
      "Ġslowly": 5899,
      "born": 5900,
      "orter": 5901,
      "ĠId": 5902,
      "Ġban": 5903,
      "Ġgenerated": 5904,
      "luding": 5905,
      "Ġsurvive": 5906,
      "ĠOF": 5907,
      "Ġadministration": 5908,
      "ini": 5909,
      "Ġtiny": 5910,
      "Ġfailed": 5911,
      "asive": 5912,
      "ĠUSA": 5913,
      "Ġsequence": 5914,
      "Ġcourses": 5915,
      "Ġsurf": 5916,
      "Ġhappy": 5917,
      "Ġstomach": 5918,
      "Ġengage": 5919,
      "Ġcultiv": 5920,
      "Ġstarts": 5921,
      "Ġ1998": 5922,
      "Ġbroken": 5923,
      "Se": 5924,
      "Ġcars": 5925,
      "Ġaccounts": 5926,
      "alysis": 5927,
      "Ġdecade": 5928,
      "ĠNations": 5929,
      "Ġscholars": 5930,
      "Ġsports": 5931,
      "Ġintellect": 5932,
      "Ġsod": 5933,
      "CT": 5934,
      "ĠProfessor": 5935,
      "Ġanswers": 5936,
      "Ġtwice": 5937,
      "Ġdream": 5938,
      "Ġharmful": 5939,
      "ĠTor": 5940,
      "Ġbeneficial": 5941,
      "Ġdensity": 5942,
      "under": 5943,
      "Ġshell": 5944,
      "ansion": 5945,
      "Ġimper": 5946,
      "no": 5947,
      "ĠAny": 5948,
      "Ġsweet": 5949,
      "zen": 5950,
      "Ġextended": 5951,
      "Ġseeing": 5952,
      "Ġunknown": 5953,
      "iform": 5954,
      "77": 5955,
      "icians": 5956,
      "Read": 5957,
      "aria": 5958,
      "Ġtransition": 5959,
      "Ġreject": 5960,
      "Ġafford": 5961,
      "ogue": 5962,
      "Ġwaves": 5963,
      "Ġremote": 5964,
      "ĠPeter": 5965,
      "Ġswitch": 5966,
      "Ġobtain": 5967,
      "ny": 5968,
      "Ġtells": 5969,
      "Ġwww": 5970,
      "Ġacceler": 5971,
      "ĠThose": 5972,
      "ĠAnn": 5973,
      "Ġchoices": 5974,
      "Ġderived": 5975,
      "erent": 5976,
      "Ġdoor": 5977,
      "Ġcreates": 5978,
      "Ġopening": 5979,
      "mary": 5980,
      "ki": 5981,
      "Ġmaintenance": 5982,
      "Ġsolve": 5983,
      "ĠISBN": 5984,
      "ĠJoseph": 5985,
      "ĠIll": 5986,
      "Ġmolecules": 5987,
      "Ġcatch": 5988,
      "lets": 5989,
      "Ġelectronic": 5990,
      "ribed": 5991,
      "Ġedge": 5992,
      "from": 5993,
      "Ġdecide": 5994,
      "inction": 5995,
      "Ġ500": 5996,
      "ĠExpl": 5997,
      "ĠGold": 5998,
      "Ġproduces": 5999,
      "UR": 6000,
      "Ġerror": 6001,
      "Ġdoubt": 6002,
      "reland": 6003,
      "ĠLeg": 6004,
      "inity": 6005,
      "hma": 6006,
      "Ġhealthcare": 6007,
      "orrow": 6008,
      "Ġopposite": 6009,
      "Ġmur": 6010,
      "ceived": 6011,
      "using": 6012,
      "Ġdepos": 6013,
      "Ġwants": 6014,
      "inder": 6015,
      "Ġconsistent": 6016,
      "Ġintervention": 6017,
      "itt": 6018,
      "Ġcritic": 6019,
      "Cont": 6020,
      "ĠFrank": 6021,
      "Ġ189": 6022,
      "Ġthor": 6023,
      "Ġ300": 6024,
      "Stud": 6025,
      "Ġaer": 6026,
      "Ġpull": 6027,
      "ĠYet": 6028,
      "Ġjourney": 6029,
      "ctive": 6030,
      "Ġstudying": 6031,
      "ĠParis": 6032,
      "Ġplays": 6033,
      "ĠDan": 6034,
      "Ġenvironments": 6035,
      "Ġsuccessfully": 6036,
      "ĠBre": 6037,
      "Ġcircumstances": 6038,
      "ĠRad": 6039,
      "Ġcomposition": 6040,
      "ĠVict": 6041,
      "Ġfossil": 6042,
      "ĠOnly": 6043,
      "Ġchildhood": 6044,
      "eer": 6045,
      "body": 6046,
      "Ġsky": 6047,
      "Ġlaun": 6048,
      "Ġprincip": 6049,
      "ĠDisease": 6050,
      "Ġaf": 6051,
      "EP": 6052,
      "igation": 6053,
      "ĠAustralian": 6054,
      "Ġlocations": 6055,
      "Ġprofessionals": 6056,
      "Ġskill": 6057,
      "ua": 6058,
      "ĠReport": 6059,
      "Ġfoundation": 6060,
      "Can": 6061,
      "ĠThrough": 6062,
      "Ġlaboratory": 6063,
      "arant": 6064,
      "inking": 6065,
      "Ġtruly": 6066,
      "Ġbio": 6067,
      "Ġstruggle": 6068,
      "Ġgreatly": 6069,
      "level": 6070,
      "but": 6071,
      ".âĢĻ": 6072,
      "Ġfly": 6073,
      "Ġframework": 6074,
      "ashion": 6075,
      "Ġsignals": 6076,
      "Ġmechanism": 6077,
      "usal": 6078,
      "Ġmarked": 6079,
      "rine": 6080,
      "Ġenable": 6081,
      "Ġdifficulty": 6082,
      "Ġcultures": 6083,
      "ĠStreet": 6084,
      "Ġsharing": 6085,
      "ena": 6086,
      "Ġoutl": 6087,
      "ĠFe": 6088,
      "Ġaudience": 6089,
      "Ġfixed": 6090,
      "wo": 6091,
      "ioxide": 6092,
      "Ġorganized": 6093,
      "ĠCommittee": 6094,
      "Ġratio": 6095,
      "Since": 6096,
      "Ġmanaged": 6097,
      "Ġcalcium": 6098,
      "Ġvessels": 6099,
      "Ġinsects": 6100,
      "Ġtransmission": 6101,
      "Ã¼": 6102,
      "Ġflav": 6103,
      "Ġresponses": 6104,
      "Ġdescription": 6105,
      "ivery": 6106,
      "Ġimplementation": 6107,
      "Ġinstitution": 6108,
      "Ġgrav": 6109,
      "Ġdebate": 6110,
      "Ġpermanent": 6111,
      "Ġindicates": 6112,
      "Ġuns": 6113,
      "inating": 6114,
      "itative": 6115,
      "ifications": 6116,
      "Ġlots": 6117,
      "tage": 6118,
      "En": 6119,
      "ocracy": 6120,
      "Ġ1970": 6121,
      "Ġwish": 6122,
      "ĠRome": 6123,
      "ĠScot": 6124,
      "umes": 6125,
      "Ġdestroyed": 6126,
      "Ġdownload": 6127,
      "Ġphilosophy": 6128,
      "aud": 6129,
      "Ġauthorities": 6130,
      "IL": 6131,
      "itudes": 6132,
      "ĠLong": 6133,
      "Ġwalking": 6134,
      "ĠHall": 6135,
      "Ġalgorith": 6136,
      "Ġreplaced": 6137,
      "Ġyield": 6138,
      "ĠKh": 6139,
      "ront": 6140,
      "Ġcarefully": 6141,
      "Ġfiber": 6142,
      "Ġattend": 6143,
      "ĠIN": 6144,
      "Ġtraum": 6145,
      "ĠClin": 6146,
      "Ġoptim": 6147,
      "Ġbear": 6148,
      "Ġmixed": 6149,
      "Ġcompr": 6150,
      "ĠIreland": 6151,
      "wing": 6152,
      "ĠChic": 6153,
      "Ġultimately": 6154,
      "ĠGlobal": 6155,
      "Ġrepresented": 6156,
      "eper": 6157,
      "ĠNatural": 6158,
      "Ġunp": 6159,
      "Ġcolour": 6160,
      "Ġhydrogen": 6161,
      "Ġacids": 6162,
      "Ġwitness": 6163,
      "Ġconventional": 6164,
      "Ġconsumers": 6165,
      "ĠDesign": 6166,
      "ĠAI": 6167,
      "Ġlimits": 6168,
      "Ġraw": 6169,
      "Ġethnic": 6170,
      "ĠMad": 6171,
      "Ġarrived": 6172,
      "Ġhus": 6173,
      "kes": 6174,
      "stein": 6175,
      "cycl": 6176,
      "Ġcart": 6177,
      "ĠStat": 6178,
      "itan": 6179,
      "zil": 6180,
      "ĠItaly": 6181,
      "Ġnewsp": 6182,
      "Ġagency": 6183,
      "Ġinteraction": 6184,
      "icide": 6185,
      "ĠLab": 6186,
      "American": 6187,
      "Ġmagnetic": 6188,
      "Ġdaughter": 6189,
      "ĠOcean": 6190,
      "ĠCult": 6191,
      "Ġgluc": 6192,
      "Ġdedicated": 6193,
      "ĠStudy": 6194,
      "acing": 6195,
      "gans": 6196,
      "cel": 6197,
      "Ġdin": 6198,
      "Ġboost": 6199,
      "onia": 6200,
      "Ġimmediate": 6201,
      "ribe": 6202,
      "Ġunable": 6203,
      "ĠHaw": 6204,
      "Ġyounger": 6205,
      "Ġsentence": 6206,
      "Ġthousand": 6207,
      "Ġcorn": 6208,
      "hand": 6209,
      "ĠSouthern": 6210,
      "Ġnecessarily": 6211,
      "Ġreserv": 6212,
      "ĠAdminist": 6213,
      "Ġnerve": 6214,
      "ĠCamp": 6215,
      "Ġnine": 6216,
      "Ġshift": 6217,
      "ipping": 6218,
      "Ġsight": 6219,
      "elled": 6220,
      "hop": 6221,
      "ĠOh": 6222,
      "Ġfounded": 6223,
      "Ġconstitution": 6224,
      "tering": 6225,
      "ĠPub": 6226,
      "Ġfasc": 6227,
      "Ġhandle": 6228,
      "bour": 6229,
      "ĠStep": 6230,
      "Ġcolleagues": 6231,
      "ints": 6232,
      "Ġpurchase": 6233,
      "ĠExp": 6234,
      "Ġroof": 6235,
      "aped": 6236,
      "Ġremark": 6237,
      "Ġgone": 6238,
      "then": 6239,
      "atal": 6240,
      "Ġorganisms": 6241,
      "Ġends": 6242,
      "Ġdesire": 6243,
      "âĢĻ,": 6244,
      "Ġfewer": 6245,
      "ĠBank": 6246,
      "Ġcholesterol": 6247,
      "gu": 6248,
      "Ġregul": 6249,
      "Bl": 6250,
      "Ġfeeding": 6251,
      "isters": 6252,
      "Ġlifestyle": 6253,
      "Ġships": 6254,
      "riers": 6255,
      "izer": 6256,
      "Ġ185": 6257,
      "Ġbiggest": 6258,
      "Ġelectron": 6259,
      "ĠCop": 6260,
      "rating": 6261,
      "Ġcloser": 6262,
      "fish": 6263,
      "Ġmac": 6264,
      "Ġpreval": 6265,
      "Ġvoc": 6266,
      "ĠExt": 6267,
      "Ġcircuit": 6268,
      "rus": 6269,
      "Ġcoffee": 6270,
      "Figure": 6271,
      "cher": 6272,
      "word": 6273,
      "Ġacknow": 6274,
      "heast": 6275,
      "Ġexists": 6276,
      "Ġsupplies": 6277,
      "ictionary": 6278,
      "Ġsupporting": 6279,
      "Ġcamera": 6280,
      "Ġwriter": 6281,
      "fortunately": 6282,
      "Ġsupports": 6283,
      "iration": 6284,
      "Ġfighting": 6285,
      "Ġnoise": 6286,
      "ĠSol": 6287,
      "Ġterritory": 6288,
      "abul": 6289,
      "tra": 6290,
      "ĠExper": 6291,
      "sey": 6292,
      "Ġcomparison": 6293,
      "Ġ1997": 6294,
      "ĠWhe": 6295,
      "Ġreader": 6296,
      "Ġaccum": 6297,
      "Ġpersist": 6298,
      "Ġeld": 6299,
      "Ġinhib": 6300,
      "Ġparalle": 6301,
      "Ġcomments": 6302,
      "bridge": 6303,
      "ĠPM": 6304,
      "Ġlisten": 6305,
      "Ġhighlight": 6306,
      "Ġchosen": 6307,
      "Ġeastern": 6308,
      "ĠNorthern": 6309,
      "Ġunderlying": 6310,
      "ĠValley": 6311,
      "Ġdioxide": 6312,
      "Ġfabric": 6313,
      "ĠAcademy": 6314,
      "ita": 6315,
      "irty": 6316,
      "omic": 6317,
      "Ġregulations": 6318,
      "ĠMa": 6319,
      "Ġhem": 6320,
      "ĠForest": 6321,
      "Ġcos": 6322,
      "Ġunus": 6323,
      "rd": 6324,
      "Ġphotograph": 6325,
      "Ġlaunch": 6326,
      "anta": 6327,
      "Ġtwenty": 6328,
      "Ġmarried": 6329,
      "Ġtea": 6330,
      "Ġmild": 6331,
      "Ġhabits": 6332,
      "ĠIP": 6333,
      "ĠRichard": 6334,
      "irds": 6335,
      "ĠRevolution": 6336,
      "ĠScott": 6337,
      "zed": 6338,
      "66": 6339,
      "ocy": 6340,
      "Ġneck": 6341,
      "Ġsucceed": 6342,
      "IP": 6343,
      "Ġchrom": 6344,
      "kins": 6345,
      "Ġinner": 6346,
      "ĠCarolina": 6347,
      "âĢĺ": 6348,
      "Ġcommunicate": 6349,
      "azing": 6350,
      "Ġjoin": 6351,
      "Ġoccasion": 6352,
      "Ġstands": 6353,
      "riting": 6354,
      "Ġtransportation": 6355,
      "stract": 6356,
      "Ġmechanisms": 6357,
      "ĠRoyal": 6358,
      "Ġarchitecture": 6359,
      "called": 6360,
      "Ġdent": 6361,
      "Ġbreathing": 6362,
      "Ġcontained": 6363,
      "Ġresolution": 6364,
      "ĠEnd": 6365,
      "Ġtank": 6366,
      "ĠForm": 6367,
      "BS": 6368,
      "ĠVis": 6369,
      "Le": 6370,
      "Ġalle": 6371,
      "Ġoverl": 6372,
      "Ġfract": 6373,
      "Ġmulti": 6374,
      "Ġourselves": 6375,
      "Ġbrand": 6376,
      "Â·": 6377,
      "earchers": 6378,
      "Ġfalse": 6379,
      "Ġclust": 6380,
      "Ġregist": 6381,
      "DP": 6382,
      "ĠWood": 6383,
      "Ġparticipate": 6384,
      "Ġhypothes": 6385,
      "Ġpron": 6386,
      "top": 6387,
      "Ġevaluation": 6388,
      "rovers": 6389,
      "Ġbread": 6390,
      "Pe": 6391,
      "Ġpercentage": 6392,
      "Ġemotions": 6393,
      "ĠMag": 6394,
      "42": 6395,
      "ĠSk": 6396,
      "Ġvote": 6397,
      "Ġstanding": 6398,
      "Ġobservations": 6399,
      "ella": 6400,
      "Ġbehaviors": 6401,
      "Ġuniversity": 6402,
      "Ġhousing": 6403,
      "Ġimprovement": 6404,
      "Ġattached": 6405,
      "ĠCancer": 6406,
      "ĠSpain": 6407,
      "ĠFort": 6408,
      "Ġmachines": 6409,
      "ĠGal": 6410,
      "Ġepid": 6411,
      "such": 6412,
      "Ġaccident": 6413,
      "Ġvulnerable": 6414,
      "Ġrecognition": 6415,
      "Ġdrawing": 6416,
      "Ġcontamin": 6417,
      "ih": 6418,
      "Ġvariable": 6419,
      "uts": 6420,
      "Ġconcrete": 6421,
      "ĠEmpire": 6422,
      "Ġrelax": 6423,
      "Ġadministr": 6424,
      "ĠHome": 6425,
      "Ġestimates": 6426,
      "phone": 6427,
      "otion": 6428,
      "Ġrid": 6429,
      "ĠColor": 6430,
      "hav": 6431,
      "ĠGet": 6432,
      "Ġresulted": 6433,
      "ĠSciences": 6434,
      "uter": 6435,
      "Ġinstructions": 6436,
      "comm": 6437,
      "Ġfever": 6438,
      "Ġtall": 6439,
      "Ġhoriz": 6440,
      "Ġneur": 6441,
      "Ġzone": 6442,
      "Ġgrew": 6443,
      "ĠAS": 6444,
      "Ġequivalent": 6445,
      "Ã³": 6446,
      "ĠCa": 6447,
      "utch": 6448,
      "Ġ1996": 6449,
      "Ġcutting": 6450,
      "Ġtaste": 6451,
      "Ġinstruments": 6452,
      "stone": 6453,
      "Ġwhatever": 6454,
      "Ġ1960": 6455,
      "Ġborder": 6456,
      "Ġartificial": 6457,
      "CD": 6458,
      "Ġgreenhouse": 6459,
      "ctor": 6460,
      "ested": 6461,
      "ĠMill": 6462,
      "teen": 6463,
      "ĠAdd": 6464,
      "Ġturns": 6465,
      "Ġpup": 6466,
      "Ġrhy": 6467,
      "ĠRob": 6468,
      "Ġcrow": 6469,
      "Ġcompounds": 6470,
      "Ġwhereas": 6471,
      "roduction": 6472,
      "Ġtrained": 6473,
      "Ġshop": 6474,
      "Ġrising": 6475,
      "Ġfeedback": 6476,
      "icon": 6477,
      "sue": 6478,
      "Ġprogramming": 6479,
      "Ġknows": 6480,
      "Ġwilling": 6481,
      "ĠBoard": 6482,
      "orous": 6483,
      "ĠDet": 6484,
      "ĠAgricult": 6485,
      "Ġsubs": 6486,
      "ditional": 6487,
      "Let": 6488,
      "Ġkit": 6489,
      "Med": 6490,
      "Ġveter": 6491,
      "Ġdemonstrated": 6492,
      "Ġmaps": 6493,
      "iah": 6494,
      "Ġdelay": 6495,
      "ĠPenn": 6496,
      "Ġshot": 6497,
      "Ġmeth": 6498,
      "Ġcats": 6499,
      "struction": 6500,
      "Ġhero": 6501,
      "Ġlayers": 6502,
      "ora": 6503,
      "ediatric": 6504,
      "Ġemployment": 6505,
      "Ġserver": 6506,
      "Ġprev": 6507,
      "ĠEth": 6508,
      "Ġlies": 6509,
      "Ġment": 6510,
      "Ġmice": 6511,
      "ĠPan": 6512,
      "ĠBrown": 6513,
      "Ġjoined": 6514,
      "Ġrefuge": 6515,
      "tic": 6516,
      "Ġfunctional": 6517,
      "Ġdiagnosed": 6518,
      "Ġstroke": 6519,
      "Ġissued": 6520,
      "Ġconfidence": 6521,
      "Ġthy": 6522,
      "Ġsupposed": 6523,
      "iratory": 6524,
      "Ġahead": 6525,
      "Ġtrials": 6526,
      "Ġpowers": 6527,
      "Ġprove": 6528,
      "Ġsmoking": 6529,
      "Ġlegs": 6530,
      "Ġrecept": 6531,
      "Ġentry": 6532,
      "ĠCap": 6533,
      "Ġrelation": 6534,
      "Ġstable": 6535,
      "ĠTime": 6536,
      "Ġindependence": 6537,
      "Ġflo": 6538,
      "ĠTimes": 6539,
      "Ġdemonstrate": 6540,
      "while": 6541,
      "Ġguarant": 6542,
      "Ġgenerations": 6543,
      "Ġrow": 6544,
      "79": 6545,
      "abled": 6546,
      "xts": 6547,
      "ureau": 6548,
      "agon": 6549,
      "Ġmedic": 6550,
      "weight": 6551,
      "Ġobesity": 6552,
      "irt": 6553,
      "Ġcapture": 6554,
      "43": 6555,
      "orses": 6556,
      "ults": 6557,
      "05": 6558,
      "Ġsubstances": 6559,
      "Ġmembr": 6560,
      "Ġconclusion": 6561,
      "Ġfu": 6562,
      "Ġ36": 6563,
      "Int": 6564,
      "Ġdebt": 6565,
      "Ġcm": 6566,
      "Ġdefe": 6567,
      "Ġdistur": 6568,
      "Ġdepartment": 6569,
      "LA": 6570,
      "Ġreactions": 6571,
      "Ġobjective": 6572,
      "Ġzero": 6573,
      "uh": 6574,
      "cons": 6575,
      "een": 6576,
      "ritis": 6577,
      "igned": 6578,
      "isk": 6579,
      "Ġfrequent": 6580,
      "Ġnearby": 6581,
      "arn": 6582,
      "Ġexamine": 6583,
      "Ġath": 6584,
      "Ġpresentation": 6585,
      "ĠChicago": 6586,
      "Ġexplo": 6587,
      "01": 6588,
      "Ġastronom": 6589,
      "Ġcompetition": 6590,
      "pet": 6591,
      "andon": 6592,
      "ĠItalian": 6593,
      "Ġinsurance": 6594,
      "Ġmand": 6595,
      "Ġoblig": 6596,
      "aine": 6597,
      "itivity": 6598,
      "ĠNative": 6599,
      "Ã¶": 6600,
      "espread": 6601,
      "ĠIrish": 6602,
      "Ġfunds": 6603,
      "ĠMichael": 6604,
      "Ġru": 6605,
      "oven": 6606,
      "Ġpair": 6607,
      "Ġbot": 6608,
      "icious": 6609,
      "88": 6610,
      "hered": 6611,
      "IR": 6612,
      "Ġconnections": 6613,
      "Ġcustomers": 6614,
      "Ġpsychological": 6615,
      "everal": 6616,
      "asters": 6617,
      "oding": 6618,
      "Ġdelivery": 6619,
      "Ġshut": 6620,
      "Ġprompt": 6621,
      "ployment": 6622,
      "Ġscript": 6623,
      "plant": 6624,
      "Lear": 6625,
      "Ġlect": 6626,
      "ĠGard": 6627,
      "ups": 6628,
      "ĠâĢ¢": 6629,
      "Ġteen": 6630,
      "Ġcrime": 6631,
      "Ġpartner": 6632,
      "ĠPract": 6633,
      "ala": 6634,
      "Ġsole": 6635,
      "Ġmatters": 6636,
      "usiness": 6637,
      "Ġpool": 6638,
      "OC": 6639,
      "ighter": 6640,
      "ether": 6641,
      "Ġsheet": 6642,
      "Ġbeliefs": 6643,
      "anches": 6644,
      "Ġemployed": 6645,
      "occ": 6646,
      "Ġdefine": 6647,
      "41": 6648,
      "eenth": 6649,
      "Ġ1995": 6650,
      "Ġpra": 6651,
      "inally": 6652,
      "esis": 6653,
      "Ġcarb": 6654,
      "Ġmode": 6655,
      "Ġchick": 6656,
      "Ġcounty": 6657,
      "Ġvirtual": 6658,
      "ĠClimate": 6659,
      "Ġphysics": 6660,
      "erior": 6661,
      "ĠFree": 6662,
      "ugh": 6663,
      "how": 6664,
      "Ġhur": 6665,
      "Ġpolitics": 6666,
      "ĠWik": 6667,
      "Ġinteractions": 6668,
      "Of": 6669,
      "aked": 6670,
      "Ġrice": 6671,
      "etime": 6672,
      "IA": 6673,
      "ittle": 6674,
      "ĠEastern": 6675,
      "gov": 6676,
      "Your": 6677,
      "urrent": 6678,
      "Ġspok": 6679,
      "Ġlaunched": 6680,
      "Ġarrange": 6681,
      "ymph": 6682,
      "hesis": 6683,
      "Ġsurve": 6684,
      "Rec": 6685,
      "Ġpositions": 6686,
      "Ġswim": 6687,
      "aph": 6688,
      "Ġpapers": 6689,
      "osion": 6690,
      "yles": 6691,
      "Ġagreed": 6692,
      "Ġexpansion": 6693,
      "Ġmanif": 6694,
      "ĠKeep": 6695,
      "Ġ75": 6696,
      "reek": 6697,
      "itely": 6698,
      "ĠGuide": 6699,
      "Ġparticipation": 6700,
      "Not": 6701,
      "Ġcategories": 6702,
      "ĠHoly": 6703,
      "Ġstimul": 6704,
      "Ġlegislation": 6705,
      "Ġflag": 6706,
      "earing": 6707,
      "Ġinvolving": 6708,
      "azine": 6709,
      "Ġbiod": 6710,
      "Ġoperate": 6711,
      "Ġpoison": 6712,
      "Ġmarkets": 6713,
      "Ġmeal": 6714,
      "ĠSing": 6715,
      "Ġcav": 6716,
      "Ġholid": 6717,
      "itter": 6718,
      "Ġwasn": 6719,
      "ishment": 6720,
      "Ġundert": 6721,
      "Ġinsulin": 6722,
      "First": 6723,
      "raining": 6724,
      "Ġexplanation": 6725,
      "Ġnone": 6726,
      "Ġtissues": 6727,
      "Ġmatch": 6728,
      "Ġforth": 6729,
      "Ġrivers": 6730,
      "Ġputting": 6731,
      "ĠIII": 6732,
      "scale": 6733,
      "etics": 6734,
      "Ġconsumer": 6735,
      "mes": 6736,
      "ading": 6737,
      "Ġsmoke": 6738,
      "Ġkidney": 6739,
      "Ġhole": 6740,
      "ĠBrazil": 6741,
      "Ġspending": 6742,
      "ĠWhere": 6743,
      "%)": 6744,
      "Ġmicros": 6745,
      "pan": 6746,
      "Over": 6747,
      "eless": 6748,
      "ĠGeorg": 6749,
      "alls": 6750,
      "ĠEarly": 6751,
      "Ġgap": 6752,
      "yth": 6753,
      "Ġmeters": 6754,
      "ĠHave": 6755,
      "Ġnegot": 6756,
      "Ġdoi": 6757,
      "Ġdeclared": 6758,
      "Ġtons": 6759,
      "ĠIndians": 6760,
      "ĠServices": 6761,
      "Ġbridge": 6762,
      "Ġusage": 6763,
      "Ġtexts": 6764,
      "ĠAccess": 6765,
      "Ġapproved": 6766,
      "Qu": 6767,
      "Ġadequate": 6768,
      "cyclop": 6769,
      "Ġlegisl": 6770,
      "nect": 6771,
      "ĠKingdom": 6772,
      "Ġelectro": 6773,
      "ĠLanguage": 6774,
      "Ġestimate": 6775,
      "Ġpainting": 6776,
      "Ġframe": 6777,
      "umps": 6778,
      "Ġreven": 6779,
      "Ġrig": 6780,
      "Ġdrawn": 6781,
      "Ġneither": 6782,
      "Ġsettings": 6783,
      "Ġblow": 6784,
      "Ġ32": 6785,
      "Ġmeasurements": 6786,
      "Ġscene": 6787,
      "Ġdanger": 6788,
      "ĠDiff": 6789,
      "Ġtrip": 6790,
      "ented": 6791,
      "Ġmaintaining": 6792,
      "Ġbutter": 6793,
      "Ġstring": 6794,
      "ĠVictor": 6795,
      "Ġassociation": 6796,
      "rial": 6797,
      "Ġnob": 6798,
      "Ġcards": 6799,
      "Ġsections": 6800,
      "Ġcup": 6801,
      "Ġwidespread": 6802,
      "Ġpassage": 6803,
      "Ġfold": 6804,
      "ushed": 6805,
      "Ġcovers": 6806,
      "Ġ150": 6807,
      "Ġdepart": 6808,
      "Ġaward": 6809,
      "ĠâĨ": 6810,
      "Ġcryst": 6811,
      "Ġended": 6812,
      "Ġinstalled": 6813,
      "Ġcommitted": 6814,
      "ĠProp": 6815,
      "Ġglucose": 6816,
      "ibl": 6817,
      "Ġruns": 6818,
      "Ġindustries": 6819,
      "Ġorient": 6820,
      "Ġdestruction": 6821,
      "Ġdamaged": 6822,
      "Ġbabies": 6823,
      "Ġblocks": 6824,
      "car": 6825,
      "Ġburning": 6826,
      "Ġbreath": 6827,
      "IG": 6828,
      "ĠEss": 6829,
      "Ġstreet": 6830,
      "ĠCreat": 6831,
      "Ġcontrols": 6832,
      "oples": 6833,
      "Ġforget": 6834,
      "Ġconstructed": 6835,
      "Ġholds": 6836,
      "ĠAtlantic": 6837,
      "ourage": 6838,
      "Ġreliable": 6839,
      "dule": 6840,
      "Ġintegrated": 6841,
      "Ġcentre": 6842,
      "Ġreceiving": 6843,
      "ĠMer": 6844,
      "Ġpharm": 6845,
      "Ġviruses": 6846,
      "Ġsomewhat": 6847,
      "Ġske": 6848,
      "Ġenemy": 6849,
      "fit": 6850,
      "Ġfurn": 6851,
      "Ġeveryday": 6852,
      "elesc": 6853,
      "ĠDar": 6854,
      "Ġvac": 6855,
      "irus": 6856,
      "Ġroute": 6857,
      "Ġorgans": 6858,
      "ĠStr": 6859,
      "Ġdivision": 6860,
      "IDS": 6861,
      "Ġentered": 6862,
      "Ġplayers": 6863,
      "Ġongoing": 6864,
      "85": 6865,
      "Ġrank": 6866,
      "Ġhistoric": 6867,
      "Ġcontrovers": 6868,
      "Ġholding": 6869,
      "Ġmm": 6870,
      "Ġmales": 6871,
      "Ġsmooth": 6872,
      "Ġcoastal": 6873,
      "utrition": 6874,
      "Ġindicated": 6875,
      "71": 6876,
      "VID": 6877,
      "example": 6878,
      "Ġcolumn": 6879,
      "Ġearthqu": 6880,
      "orph": 6881,
      "Ġshif": 6882,
      "SS": 6883,
      "Ġbanks": 6884,
      "Ġrelief": 6885,
      "Ġmanip": 6886,
      "osc": 6887,
      "Ġaccessible": 6888,
      "Ġintellectual": 6889,
      "Ġboys": 6890,
      "Ġdollars": 6891,
      "ulty": 6892,
      "htt": 6893,
      "Ġcomposed": 6894,
      "pes": 6895,
      "she": 6896,
      "Ġstrongly": 6897,
      "Ġchallenging": 6898,
      "Ġrepair": 6899,
      "Ġvoltage": 6900,
      "gical": 6901,
      "Ġfer": 6902,
      "Ġmining": 6903,
      "Ġbrings": 6904,
      "Ġpublication": 6905,
      "herent": 6906,
      "Ġfashion": 6907,
      "Ġminerals": 6908,
      "Ġabandon": 6909,
      "Don": 6910,
      "itamin": 6911,
      "Ġmissing": 6912,
      "Ġartists": 6913,
      "Ġhonor": 6914,
      "eers": 6915,
      "ocation": 6916,
      "rite": 6917,
      "Ġoutbre": 6918,
      "Ġconven": 6919,
      "Ġvictims": 6920,
      "Ġvolcan": 6921,
      "idential": 6922,
      "Ġstre": 6923,
      "Ġmos": 6924,
      "Ġcenters": 6925,
      "Ġannounced": 6926,
      "yal": 6927,
      "Ġbond": 6928,
      "________": 6929,
      "Ġmood": 6930,
      "Ġfacility": 6931,
      "Ġcategory": 6932,
      "Ġelection": 6933,
      "OL": 6934,
      "Ġnest": 6935,
      "ĠAge": 6936,
      "Even": 6937,
      "Ġtight": 6938,
      "Ġboy": 6939,
      "rane": 6940,
      "Ġsacr": 6941,
      "Ġexercises": 6942,
      "igan": 6943,
      "Ġmicrob": 6944,
      "oston": 6945,
      "Ġtrouble": 6946,
      "Ġvs": 6947,
      "Ġhun": 6948,
      "inson": 6949,
      "idity": 6950,
      "Ġfulf": 6951,
      "ano": 6952,
      "Ġkne": 6953,
      "ĠMD": 6954,
      "IM": 6955,
      "Ġmeasurement": 6956,
      "ĠSil": 6957,
      "Ġfemales": 6958,
      "Ġpounds": 6959,
      "Ġwait": 6960,
      "Ġreduces": 6961,
      "Ġ65": 6962,
      "Ġseemed": 6963,
      "Ġpregnant": 6964,
      "Ġphoto": 6965,
      "sts": 6966,
      "iral": 6967,
      "Ġintense": 6968,
      "Ġcompare": 6969,
      "Ġevaluate": 6970,
      "Ġille": 6971,
      "Ġasking": 6972,
      "ĠCre": 6973,
      "gers": 6974,
      "hent": 6975,
      "operation": 6976,
      "ĠBab": 6977,
      "ĠViet": 6978,
      "ĠPop": 6979,
      "Ġworry": 6980,
      "iability": 6981,
      "Once": 6982,
      "Ġrealize": 6983,
      "oir": 6984,
      "ĠYear": 6985,
      "Ġproportion": 6986,
      "Ġparas": 6987,
      "Ġdesigns": 6988,
      "Ġnervous": 6989,
      "Ġsatellite": 6990,
      "Ġwound": 6991,
      "Ġrenewable": 6992,
      "Ġfro": 6993,
      "Ġtheories": 6994,
      "Ġcriteria": 6995,
      "ĠFamily": 6996,
      "ĠResources": 6997,
      "ĠParty": 6998,
      "ĠHill": 6999,
      "apse": 7000,
      "Ġsilver": 7001,
      "Ġmoisture": 7002,
      "Ġtheore": 7003,
      "Ġmerely": 7004,
      "Ġexamination": 7005,
      "ĠAcc": 7006,
      "Ġcollaboration": 7007,
      "acco": 7008,
      "arsh": 7009,
      "Ġtract": 7010,
      "abulary": 7011,
      "Ġplus": 7012,
      "CA": 7013,
      "Ġpreparation": 7014,
      "aded": 7015,
      "Ġblind": 7016,
      "ĠEU": 7017,
      "greg": 7018,
      "Ġoffering": 7019,
      "Ġearn": 7020,
      "ani": 7021,
      "Ġcalories": 7022,
      "making": 7023,
      "Ġconstantly": 7024,
      "ĠAdv": 7025,
      "gs": 7026,
      "health": 7027,
      "Ġrespectively": 7028,
      "ĠDig": 7029,
      "rooms": 7030,
      "Ġcommission": 7031,
      "RA": 7032,
      "rary": 7033,
      "Ġgram": 7034,
      "Ġmaintained": 7035,
      "Ġwithd": 7036,
      "Ġfavorite": 7037,
      "ĠAgency": 7038,
      "Ġmetabol": 7039,
      "ĠBig": 7040,
      "thritis": 7041,
      "%.": 7042,
      "iological": 7043,
      "Ġseeking": 7044,
      "Ġsought": 7045,
      "Ġparallel": 7046,
      "Ġhusband": 7047,
      "Ġturning": 7048,
      "ĠTake": 7049,
      "airy": 7050,
      "Ġengaged": 7051,
      "Ġdistributed": 7052,
      "ĠDistrict": 7053,
      "Ġadvert": 7054,
      "ĠSup": 7055,
      "ĠCy": 7056,
      "Me": 7057,
      "Ġring": 7058,
      "Ġsignificance": 7059,
      "amins": 7060,
      "ĠOxford": 7061,
      "ĠEqu": 7062,
      "ĠRom": 7063,
      "ĠMartin": 7064,
      "Ġoutcome": 7065,
      "Ġabnormal": 7066,
      "Ġaccuracy": 7067,
      "ivered": 7068,
      "Ġtub": 7069,
      "Ġuncertain": 7070,
      "alm": 7071,
      "Because": 7072,
      "Ġmolecular": 7073,
      "Ġagents": 7074,
      "Ġrely": 7075,
      "Ġsigned": 7076,
      "Ġprohib": 7077,
      "Ġrocks": 7078,
      "Ġdys": 7079,
      "asty": 7080,
      "onomy": 7081,
      "Ġinfect": 7082,
      "73": 7083,
      "Ġtube": 7084,
      "heric": 7085,
      "Ġloved": 7086,
      "Ġforg": 7087,
      "Ġspaces": 7088,
      "Ġped": 7089,
      "roat": 7090,
      "ĠTV": 7091,
      "ĠZeal": 7092,
      "net": 7093,
      "ĠTeac": 7094,
      "ĠChristmas": 7095,
      "Ġbath": 7096,
      "Ġbeings": 7097,
      "68": 7098,
      "rey": 7099,
      "Ġroles": 7100,
      "Ġweapons": 7101,
      "Ġintest": 7102,
      "Ġsurfaces": 7103,
      "isdom": 7104,
      "ĠList": 7105,
      "esides": 7106,
      "Ġtransp": 7107,
      "Ġmechanical": 7108,
      "olesc": 7109,
      "ĠSpecial": 7110,
      "Ġopposed": 7111,
      "Ġfarming": 7112,
      "ĠÐ": 7113,
      "Ġinfluenced": 7114,
      "Ġbreeding": 7115,
      "Ġthanks": 7116,
      "rency": 7117,
      "Ġscan": 7118,
      "Ġbiology": 7119,
      "CE": 7120,
      "Ġstrict": 7121,
      "sis": 7122,
      "Ġarrest": 7123,
      "Ġdischar": 7124,
      "Ġfourth": 7125,
      "Ġvariables": 7126,
      "ailed": 7127,
      "ĠBefore": 7128,
      "Ġarchae": 7129,
      "Ġislands": 7130,
      "ĠPlant": 7131,
      "ĠLib": 7132,
      "Ġcomplicated": 7133,
      "Ġrarely": 7134,
      "ady": 7135,
      "Ġplenty": 7136,
      "ĠHeb": 7137,
      "Ġarts": 7138,
      "Ġ1994": 7139,
      "Ġfacing": 7140,
      "Ġbeauty": 7141,
      "Ġescape": 7142,
      "ĠNaz": 7143,
      "Ġdependent": 7144,
      "ĠEffect": 7145,
      "ĠWord": 7146,
      "Ġinfant": 7147,
      "Ġartist": 7148,
      "UT": 7149,
      "Ġmortality": 7150,
      "ommod": 7151,
      "Ġmessages": 7152,
      "Ġpreventing": 7153,
      "Ġfairly": 7154,
      "Ġprincipal": 7155,
      "Ġcaptured": 7156,
      "'m": 7157,
      "Ġjudge": 7158,
      "ĠAdministration": 7159,
      "ĠAP": 7160,
      "Ġdetection": 7161,
      "aska": 7162,
      "Ġcontemporary": 7163,
      "abb": 7164,
      "Ġcircle": 7165,
      "peror": 7166,
      "hyd": 7167,
      "ĠAND": 7168,
      "orders": 7169,
      "Ġserving": 7170,
      "CH": 7171,
      "ĠPolic": 7172,
      "Ġessentially": 7173,
      "Ġproof": 7174,
      "Ġguidance": 7175,
      "ĠSat": 7176,
      "Ġconversation": 7177,
      "rowing": 7178,
      "ĠThough": 7179,
      "Ġcareful": 7180,
      "Ġsubsequent": 7181,
      "Ġacute": 7182,
      "Ġedition": 7183,
      "Ġmathematics": 7184,
      "forcement": 7185,
      "Ġtemple": 7186,
      "Ġattempts": 7187,
      "Ġdefect": 7188,
      "Ġconsiderable": 7189,
      "Or": 7190,
      "estion": 7191,
      "Ġdisaster": 7192,
      "Ġdomain": 7193,
      "Ġcrew": 7194,
      "ĠZealand": 7195,
      "Ġscore": 7196,
      "Ġingredients": 7197,
      "ipedia": 7198,
      "Ġowner": 7199,
      "quit": 7200,
      "iana": 7201,
      "ortion": 7202,
      "Ġinher": 7203,
      "Ġtowns": 7204,
      "oln": 7205,
      "Ġencouraged": 7206,
      "ĠSometimes": 7207,
      "ĠAsian": 7208,
      "Every": 7209,
      "Ġjump": 7210,
      "Ġproceed": 7211,
      "otton": 7212,
      "Ġmoves": 7213,
      "Ġgradually": 7214,
      "Ġbringing": 7215,
      "osh": 7216,
      "Ġcrim": 7217,
      "Ġphenomenon": 7218,
      "Ġcarrying": 7219,
      "Ġangle": 7220,
      "ĠFace": 7221,
      "Ġirrit": 7222,
      "Ġmixt": 7223,
      "Ġanalys": 7224,
      "74": 7225,
      "Ġpeak": 7226,
      "olving": 7227,
      "eren": 7228,
      "Ġclothing": 7229,
      "Ġsession": 7230,
      "Ġdefense": 7231,
      "heimer": 7232,
      "aired": 7233,
      "ĠChange": 7234,
      "ĠOpen": 7235,
      "ĠMel": 7236,
      "Ġdesired": 7237,
      "Ġdiscrimination": 7238,
      "Ġconsidering": 7239,
      "Ġvisitors": 7240,
      "ruption": 7241,
      "Ġimplemented": 7242,
      "Ġrab": 7243,
      "Ġcombat": 7244,
      "Ġdose": 7245,
      "ĠSecret": 7246,
      "Ġproved": 7247,
      "Ġphotos": 7248,
      "Ġstatistics": 7249,
      "Ġitem": 7250,
      "Ġofficers": 7251,
      "Ġsharp": 7252,
      "Ġid": 7253,
      "Ġadvantages": 7254,
      "Ġtheme": 7255,
      "Ġshock": 7256,
      "ĠHy": 7257,
      "bra": 7258,
      "amine": 7259,
      "ventions": 7260,
      "Ġincred": 7261,
      "ĠMoreover": 7262,
      "amination": 7263,
      "eli": 7264,
      "Ġnose": 7265,
      "including": 7266,
      "Ġinn": 7267,
      "ĠRock": 7268,
      "Ġexclus": 7269,
      "Ġproven": 7270,
      "medi": 7271,
      "Ġconfirmed": 7272,
      "ĠPlease": 7273,
      "Ġseconds": 7274,
      "ĠPet": 7275,
      "itals": 7276,
      "Ġgalax": 7277,
      "oom": 7278,
      "ĠPrinc": 7279,
      "Ġpanel": 7280,
      "NS": 7281,
      "Ġlie": 7282,
      "illa": 7283,
      "Ġhorses": 7284,
      "ollowing": 7285,
      "Ġevil": 7286,
      "72": 7287,
      "ĠEp": 7288,
      "Ġformula": 7289,
      "lishing": 7290,
      "Ġinterpre": 7291,
      "va": 7292,
      "Ġabsence": 7293,
      "theless": 7294,
      "aning": 7295,
      "pling": 7296,
      "Ġempt": 7297,
      "Ġinterpretation": 7298,
      "ĠTop": 7299,
      "Ġcorrel": 7300,
      "Ġasthma": 7301,
      "Ġchest": 7302,
      "Ġ1950": 7303,
      "ĠYoung": 7304,
      "Am": 7305,
      "Ġheating": 7306,
      "Ġclaimed": 7307,
      "ĠMuslim": 7308,
      "ĠMS": 7309,
      "Ġstronger": 7310,
      "Today": 7311,
      "Ġimplications": 7312,
      "Ġnewly": 7313,
      "Ġsla": 7314,
      "Ġcopper": 7315,
      "ĠCheck": 7316,
      "eness": 7317,
      "Ġminute": 7318,
      "Ġdelivered": 7319,
      "ĠCommunity": 7320,
      "ĠWho": 7321,
      "ĠAngel": 7322,
      "Ġbranches": 7323,
      "Ġbranch": 7324,
      "Ġinsert": 7325,
      "Ġeffectiveness": 7326,
      "ĠCentre": 7327,
      "ĠFurthermore": 7328,
      "Ġexperimental": 7329,
      "Ġdrain": 7330,
      "Ġfed": 7331,
      "HD": 7332,
      "Ġaims": 7333,
      "ricts": 7334,
      "ĠColumbia": 7335,
      "Ġpassing": 7336,
      "Ġdealing": 7337,
      "sm": 7338,
      "vard": 7339,
      "Ġsales": 7340,
      "Ġpresents": 7341,
      "Ġspectrum": 7342,
      "Ġuniversal": 7343,
      "produ": 7344,
      "istical": 7345,
      "Ġsurprising": 7346,
      "Ġroughly": 7347,
      "outs": 7348,
      "ĠScotland": 7349,
      "rene": 7350,
      "ilation": 7351,
      "Ġ400": 7352,
      "agram": 7353,
      "Ġplanned": 7354,
      "ĠBill": 7355,
      "Ġprinted": 7356,
      "Ġdifficulties": 7357,
      "Ġexcessive": 7358,
      "bar": 7359,
      "ĠDirector": 7360,
      "Ġinformed": 7361,
      "Ġchlor": 7362,
      "Ġreward": 7363,
      "ĠGrand": 7364,
      "ptions": 7365,
      "rous": 7366,
      "Ġwriters": 7367,
      "Ġfalls": 7368,
      "Ġvarieties": 7369,
      "ĠAmong": 7370,
      "Ed": 7371,
      "Ġlaid": 7372,
      "ooking": 7373,
      "ogether": 7374,
      "ĠSwed": 7375,
      "ohyd": 7376,
      "atial": 7377,
      "ĠSecurity": 7378,
      "akistan": 7379,
      "Ġunusual": 7380,
      "adder": 7381,
      "Ġplane": 7382,
      "Ġfocuses": 7383,
      "Ġscreening": 7384,
      "Ġlights": 7385,
      "ĠDen": 7386,
      "Ġequally": 7387,
      "Ġimagine": 7388,
      "Ġslavery": 7389,
      "Ġrespiratory": 7390,
      "Ġtargets": 7391,
      "class": 7392,
      "Ġshapes": 7393,
      "ĠBoston": 7394,
      "ĠJac": 7395,
      "Ġoverw": 7396,
      "Note": 7397,
      "Ġordered": 7398,
      "ĠNon": 7399,
      "Ġfishing": 7400,
      "ĠMoon": 7401,
      "ĠWall": 7402,
      "Ġlake": 7403,
      "Ġfinished": 7404,
      "ĠPo": 7405,
      "Ġelected": 7406,
      "vin": 7407,
      "Ġsoul": 7408,
      "Ġmodified": 7409,
      "Ġteams": 7410,
      "Ġremoval": 7411,
      "Ġmold": 7412,
      "Ġconcerning": 7413,
      "Ġremed": 7414,
      "Ġwine": 7415,
      "ovascular": 7416,
      "Ġov": 7417,
      "Ġcharacterized": 7418,
      "tles": 7419,
      "89": 7420,
      "Ġassigned": 7421,
      "Ġknowing": 7422,
      "Ġneighborhood": 7423,
      "69": 7424,
      "Ġerrors": 7425,
      "action": 7426,
      "Ġcham": 7427,
      "uality": 7428,
      "isco": 7429,
      "ĠFour": 7430,
      "ĠIndust": 7431,
      "Ġradical": 7432,
      "rox": 7433,
      "ĠDou": 7434,
      "ĠMen": 7435,
      "Ġprominent": 7436,
      "aming": 7437,
      "Ġassume": 7438,
      "emia": 7439,
      "Ġgained": 7440,
      "Ġtreating": 7441,
      "Ġtut": 7442,
      "Ġlearners": 7443,
      "Ġhazard": 7444,
      "ĠVer": 7445,
      "Ġscientist": 7446,
      "Ġsubstantial": 7447,
      "ĠResp": 7448,
      "Ġhormone": 7449,
      "Ġexceed": 7450,
      "ima": 7451,
      "haust": 7452,
      "Ġroads": 7453,
      "Ġguard": 7454,
      "Ġfilter": 7455,
      "Ġphosph": 7456,
      "UN": 7457,
      "Ġsuffered": 7458,
      "Ġmineral": 7459,
      "Ġstead": 7460,
      "Ġdecor": 7461,
      "bles": 7462,
      "ĠDespite": 7463,
      "Su": 7464,
      "Ġcompens": 7465,
      "Ġobserve": 7466,
      "Ġpestic": 7467,
      "Ġcomfortable": 7468,
      "Ġusual": 7469,
      "Ġhappening": 7470,
      "Ġouter": 7471,
      "ĠDoes": 7472,
      "ĠWorks": 7473,
      "reated": 7474,
      "ĠOhio": 7475,
      "Ġspin": 7476,
      "incoln": 7477,
      "Ġexception": 7478,
      "ĠNetwork": 7479,
      "Ġkilomet": 7480,
      "Ġexamined": 7481,
      "Ġslaves": 7482,
      "iat": 7483,
      "Ġintent": 7484,
      "Ġracial": 7485,
      "Ġclar": 7486,
      "ĠFund": 7487,
      "Ġton": 7488,
      "Ġhealing": 7489,
      "Ġeditor": 7490,
      "Comm": 7491,
      "Ġinvestigation": 7492,
      "riz": 7493,
      "ounce": 7494,
      "angered": 7495,
      "Ġsatisf": 7496,
      "Ġturb": 7497,
      "Ġbreed": 7498,
      "oids": 7499,
      "Ġstuff": 7500,
      "ograp": 7501,
      "Ġ1992": 7502,
      "Ġdemands": 7503,
      "ontal": 7504,
      "Ġflour": 7505,
      "unicip": 7506,
      "Ġtelevision": 7507,
      "Comp": 7508,
      "Ġconqu": 7509,
      "Ġdefend": 7510,
      "abeth": 7511,
      "vania": 7512,
      "ĠFinally": 7513,
      "ĠAM": 7514,
      "ĠCast": 7515,
      "ucky": 7516,
      "requ": 7517,
      "Ġwarning": 7518,
      "Ġcooking": 7519,
      "ultane": 7520,
      "Ġbomb": 7521,
      "rav": 7522,
      "Ġtropical": 7523,
      "Ġcleaning": 7524,
      "ĠCoast": 7525,
      "pd": 7526,
      "Ġinitially": 7527,
      "ansas": 7528,
      "Ġeliminate": 7529,
      "Ġdates": 7530,
      "Ġtrigger": 7531,
      "Ġdeeper": 7532,
      "otype": 7533,
      "oric": 7534,
      "Ġgut": 7535,
      "Ġgrain": 7536,
      "Ġflower": 7537,
      "ostic": 7538,
      "ĠWindows": 7539,
      "Ġfung": 7540,
      "64": 7541,
      "effect": 7542,
      "ĠAdditionally": 7543,
      "just": 7544,
      "Ġidentification": 7545,
      "Ġphysician": 7546,
      "ĠChristians": 7547,
      "Ġearliest": 7548,
      "Ġdecreased": 7549,
      "Ġremind": 7550,
      "Ġevolved": 7551,
      "ĠGr": 7552,
      "Ġimaging": 7553,
      "uten": 7554,
      "Ġaccommod": 7555,
      "Ġstructural": 7556,
      "agraph": 7557,
      "Ġstores": 7558,
      "oga": 7559,
      "Ġnitrogen": 7560,
      "Ġvariation": 7561,
      "mod": 7562,
      "Ġrecover": 7563,
      "Ġorbit": 7564,
      "ĠFigure": 7565,
      "Ġcorner": 7566,
      "Ġisolated": 7567,
      "Ġtraditions": 7568,
      "Ġconsideration": 7569,
      "Ġgro": 7570,
      "rance": 7571,
      "ĠSupreme": 7572,
      "Ġdetected": 7573,
      "Ġbigger": 7574,
      "Ġliteracy": 7575,
      "Ġcompound": 7576,
      "Ġstatements": 7577,
      "html": 7578,
      "Ġsenior": 7579,
      "Ġserves": 7580,
      "asant": 7581,
      "âĢł": 7582,
      "Ġgrid": 7583,
      "Ġadm": 7584,
      "ĠMinister": 7585,
      "Ġthreats": 7586,
      "ĠLow": 7587,
      "ĠEngineering": 7588,
      "Ġunw": 7589,
      "Ġdiameter": 7590,
      "ustain": 7591,
      "syl": 7592,
      "Ġmaybe": 7593,
      "orted": 7594,
      "Ġpit": 7595,
      "ounter": 7596,
      "ĠVen": 7597,
      "Ġmarks": 7598,
      "Ġsuperior": 7599,
      "Ġcriminal": 7600,
      "Ġconcluded": 7601,
      "Ġprovider": 7602,
      "ersonal": 7603,
      "Ġgranted": 7604,
      "iary": 7605,
      "ĠJohnson": 7606,
      "Ġfaced": 7607,
      "essions": 7608,
      "ĠSuper": 7609,
      "coming": 7610,
      "oured": 7611,
      "Ġstations": 7612,
      "Ġtrends": 7613,
      "Ġinnovation": 7614,
      "igue": 7615,
      "arents": 7616,
      "Ġbiom": 7617,
      "Ġamazing": 7618,
      "Ġadds": 7619,
      "Ġbrush": 7620,
      "icted": 7621,
      "riend": 7622,
      "Ġconference": 7623,
      "ĠThree": 7624,
      "Ġdriven": 7625,
      "Ġholes": 7626,
      "atively": 7627,
      "Ġconfig": 7628,
      "Ġslave": 7629,
      "rays": 7630,
      "Ġcaught": 7631,
      "EE": 7632,
      "semb": 7633,
      "ĠTim": 7634,
      "isted": 7635,
      "etary": 7636,
      "ioxid": 7637,
      "She": 7638,
      "Ġ48": 7639,
      "Ġterror": 7640,
      "Ġhoney": 7641,
      "ishop": 7642,
      "Ġarray": 7643,
      "Ġheavily": 7644,
      "Ġdrought": 7645,
      "âĢ²": 7646,
      "ĠSund": 7647,
      "Ġrose": 7648,
      "?\"": 7649,
      "ĠEr": 7650,
      "print": 7651,
      "Ġscar": 7652,
      "Ġanywhere": 7653,
      "Ġsubt": 7654,
      "Ġepis": 7655,
      "ĠJeff": 7656,
      "gence": 7657,
      "ĠMethod": 7658,
      "zheimer": 7659,
      "Ġaccompan": 7660,
      "Ġfest": 7661,
      "Ġunion": 7662,
      "Ġalter": 7663,
      "otal": 7664,
      "Ġplot": 7665,
      "ĠIran": 7666,
      "ĠLar": 7667,
      "Ġcomplications": 7668,
      "sell": 7669,
      "ĠHebrew": 7670,
      "Per": 7671,
      "Ġenorm": 7672,
      "Ġflows": 7673,
      "06": 7674,
      "Ġacres": 7675,
      "Ġvideos": 7676,
      "ĠCOVID": 7677,
      "chen": 7678,
      "Ġsplit": 7679,
      "ette": 7680,
      "ĠSir": 7681,
      "Ġhosp": 7682,
      "Ġcash": 7683,
      "mm": 7684,
      "CP": 7685,
      "fts": 7686,
      "Ġbrows": 7687,
      "Ġconj": 7688,
      "Ġmeasuring": 7689,
      "Ġcorrectly": 7690,
      "Ġconsume": 7691,
      "Ear": 7692,
      "itual": 7693,
      "ĠNever": 7694,
      "Ġtranslation": 7695,
      "ĠSafety": 7696,
      "Ġdirected": 7697,
      "ĠSar": 7698,
      "Ġlistening": 7699,
      "Ġprinting": 7700,
      "Ġperception": 7701,
      "People": 7702,
      "Ġschedule": 7703,
      "Ġworship": 7704,
      "Ġmountains": 7705,
      "Ġplayer": 7706,
      "Ġindigenous": 7707,
      "Ġasc": 7708,
      "ĠUr": 7709,
      "Ġdisabilities": 7710,
      "Ġsport": 7711,
      "Ã¢": 7712,
      "Ġcort": 7713,
      "Ġwindows": 7714,
      "icy": 7715,
      "ĠSurvey": 7716,
      "ĠSign": 7717,
      "ĠBul": 7718,
      "ĠTre": 7719,
      "Ġdynamic": 7720,
      "ĠOrganization": 7721,
      "Ġperm": 7722,
      "Ġobservation": 7723,
      "opes": 7724,
      "ao": 7725,
      "ercury": 7726,
      "ĠLead": 7727,
      "ĠEst": 7728,
      "Ġmg": 7729,
      "Ġ38": 7730,
      "icing": 7731,
      "Ġantibiotics": 7732,
      "Ġchannel": 7733,
      "Ġpin": 7734,
      "ĠPen": 7735,
      "elfare": 7736,
      "onym": 7737,
      "Ġceremon": 7738,
      "usalem": 7739,
      "Ġemphasis": 7740,
      "Ġfinds": 7741,
      "ENT": 7742,
      "edu": 7743,
      "Ġ1993": 7744,
      "Ġcoverage": 7745,
      "Ġbacterial": 7746,
      "Ġcattle": 7747,
      "ĠNov": 7748,
      "Ġinspired": 7749,
      "night": 7750,
      "Ġpeoples": 7751,
      "ĠLiter": 7752,
      "Ġmusical": 7753,
      "ĠPakistan": 7754,
      "ura": 7755,
      "Ġye": 7756,
      "quar": 7757,
      "ĠMult": 7758,
      "uset": 7759,
      "ographical": 7760,
      "soft": 7761,
      "Ġpreced": 7762,
      "ĠPot": 7763,
      "ĠAuthor": 7764,
      "sylvania": 7765,
      "Ġdisrupt": 7766,
      "forest": 7767,
      "Ġwrites": 7768,
      "Ġreveal": 7769,
      "itarian": 7770,
      "ude": 7771,
      "Ġhence": 7772,
      "ĠIns": 7773,
      "asses": 7774,
      "Ġregulation": 7775,
      "Ġinhabit": 7776,
      "Ġduty": 7777,
      "Ġstability": 7778,
      "Ġoccurring": 7779,
      "Ġobjectives": 7780,
      "ĠJul": 7781,
      "Ġoldest": 7782,
      "ĠSimilar": 7783,
      "Ġampl": 7784,
      "Ġstrengthen": 7785,
      "Ġmine": 7786,
      "mers": 7787,
      "Ġautomatically": 7788,
      "iture": 7789,
      "Ġworst": 7790,
      "ocial": 7791,
      "ĠKorea": 7792,
      "Ġsunlight": 7793,
      "rolled": 7794,
      "Ġpoem": 7795,
      "Ġintensity": 7796,
      "Ġheads": 7797,
      "allow": 7798,
      "Ġsitting": 7799,
      "Ġnice": 7800,
      "ĠDivision": 7801,
      "Ġprocessed": 7802,
      "Col": 7803,
      "usetts": 7804,
      "About": 7805,
      "def": 7806,
      "ogenic": 7807,
      "ĠCell": 7808,
      "ildren": 7809,
      "Ġagent": 7810,
      "achusetts": 7811,
      "Ġtables": 7812,
      "eut": 7813,
      "Ġovercome": 7814,
      "Ġviewed": 7815,
      "Ġwheat": 7816,
      "Ġtaxes": 7817,
      "Ġcontribution": 7818,
      "Ġreaching": 7819,
      "Ġsuscept": 7820,
      "Ġaged": 7821,
      "Ġacquired": 7822,
      "cyclopedia": 7823,
      "izabeth": 7824,
      "Ġ1991": 7825,
      "02": 7826,
      "OM": 7827,
      "ĠForce": 7828,
      "erly": 7829,
      "Ġregarded": 7830,
      "Ġdietary": 7831,
      "Ġwheel": 7832,
      "ĠEdward": 7833,
      "icular": 7834,
      "Ġuniform": 7835,
      "Ġvocabulary": 7836,
      "ĠConservation": 7837,
      "Ġtumor": 7838,
      "plete": 7839,
      "App": 7840,
      "59": 7841,
      "Ġcommitment": 7842,
      "Ġgiant": 7843,
      "AA": 7844,
      "Ġpolar": 7845,
      "Ġ)": 7846,
      "rection": 7847,
      "Ġidentifying": 7848,
      "Ġfunctioning": 7849,
      "09": 7850,
      "ĠStar": 7851,
      "ĠCross": 7852,
      "CR": 7853,
      "Ġcontributed": 7854,
      "adel": 7855,
      "ĠCambridge": 7856,
      "Ġvel": 7857,
      "ĠKar": 7858,
      "Ġgrows": 7859,
      "Ġprotecting": 7860,
      "ĠOper": 7861,
      "Ġstrain": 7862,
      "ailable": 7863,
      "08": 7864,
      "Ġcalling": 7865,
      "ĠPrevention": 7866,
      "Ġvan": 7867,
      "Ġinterface": 7868,
      "03": 7869,
      "erty": 7870,
      "ĠNeu": 7871,
      "Ġcooling": 7872,
      "Ġ33": 7873,
      "Ġaddressed": 7874,
      "real": 7875,
      "Pr": 7876,
      "Ġsup": 7877,
      "ĠColl": 7878,
      "Ġrelie": 7879,
      "Ġalph": 7880,
      "Ġconserv": 7881,
      "ĠDev": 7882,
      "Ġquarter": 7883,
      "Ġautism": 7884,
      "omer": 7885,
      "ĠLincoln": 7886,
      "ĠProtection": 7887,
      "irth": 7888,
      "ĠTable": 7889,
      "Ġrepresentation": 7890,
      "ieval": 7891,
      "ali": 7892,
      "Ġgases": 7893,
      "ĠHospital": 7894,
      "yer": 7895,
      "Ġmoderate": 7896,
      "Ġdriver": 7897,
      "ĠType": 7898,
      "Ġcounsel": 7899,
      "ogs": 7900,
      "Ġengineers": 7901,
      "Ġexhaust": 7902,
      "Ġdesert": 7903,
      "Ġdecay": 7904,
      "Ġappointed": 7905,
      "athered": 7906,
      "Ġabilities": 7907,
      "Ġ;": 7908,
      "century": 7909,
      "ĠLo": 7910,
      "enger": 7911,
      "Ġathlet": 7912,
      "ĠCurrent": 7913,
      "ĠNote": 7914,
      "ourse": 7915,
      "ĠQueen": 7916,
      "MP": 7917,
      "ĠFather": 7918,
      "quir": 7919,
      "igate": 7920,
      "Ġsensitivity": 7921,
      "ĠReading": 7922,
      "eping": 7923,
      "58": 7924,
      "Ġrational": 7925,
      "ĠJo": 7926,
      "Ġexperiencing": 7927,
      "ĠMah": 7928,
      "May": 7929,
      "ĠLearn": 7930,
      "----": 7931,
      "Ġcovering": 7932,
      "Ġadverse": 7933,
      "Ġregardless": 7934,
      "ĠSet": 7935,
      "Ġlaser": 7936,
      "Ġfatty": 7937,
      "azon": 7938,
      "Ġles": 7939,
      "Ġstake": 7940,
      "Pre": 7941,
      "Ġextend": 7942,
      "Ġmathematical": 7943,
      "Ġvitamins": 7944,
      "aws": 7945,
      "Ġquiet": 7946,
      "Ġbees": 7947,
      "ĠGeorgia": 7948,
      "Ġauthent": 7949,
      "Ġthermal": 7950,
      "door": 7951,
      "lines": 7952,
      "Ġmeals": 7953,
      "Ġseparated": 7954,
      "HA": 7955,
      "ĠMichigan": 7956,
      "ĠLee": 7957,
      "hea": 7958,
      "Ġsimultane": 7959,
      "ĠAlzheimer": 7960,
      "brid": 7961,
      "Ġargue": 7962,
      "Part": 7963,
      "erman": 7964,
      "archy": 7965,
      "ĠDom": 7966,
      "Ġforming": 7967,
      "ols": 7968,
      "Ġconcentrations": 7969,
      "Ġcommittee": 7970,
      "Ġaffecting": 7971,
      "Ġlymph": 7972,
      "ĠPolicy": 7973,
      "Ġhardware": 7974,
      "Ġclient": 7975,
      "Last": 7976,
      "Ġpla": 7977,
      "Ġparameters": 7978,
      "Ġresid": 7979,
      "Ġvictim": 7980,
      "Ġmir": 7981,
      "',": 7982,
      "angle": 7983,
      ")|": 7984,
      "Ġlens": 7985,
      "Car": 7986,
      "Ġcoc": 7987,
      "Ġhidden": 7988,
      "],": 7989,
      "Ġcolonial": 7990,
      "ĠJerusalem": 7991,
      "Ġsupplements": 7992,
      "Ġplanets": 7993,
      "anned": 7994,
      "esh": 7995,
      "oli": 7996,
      "ĠIV": 7997,
      "ĠLight": 7998,
      "Ġmixture": 7999,
      "Ġpermission": 8000,
      "Ġseat": 8001,
      "Ġproviders": 8002,
      "ĠCorn": 8003,
      "Ġthereby": 8004,
      "ruit": 8005,
      "Ġversions": 8006,
      "Ġsettlement": 8007,
      "itory": 8008,
      "Ġinnovative": 8009,
      "Ġcharacteristic": 8010,
      "ĠCP": 8011,
      "Ġran": 8012,
      "Ġadolesc": 8013,
      "Ġfalling": 8014,
      "Ġscores": 8015,
      "ĠFire": 8016,
      "Ġsteam": 8017,
      "Ġvaccines": 8018,
      "ĠPennsylvania": 8019,
      "Ġlists": 8020,
      "Ġrhyth": 8021,
      "ĠMassachusetts": 8022,
      "Ġburied": 8023,
      "Ġvisited": 8024,
      "Ġconsumed": 8025,
      "Ġalive": 8026,
      "ĠFacebook": 8027,
      "Ġquantity": 8028,
      "Ġsurge": 8029,
      "Ġeducators": 8030,
      "Ġexpanded": 8031,
      "antly": 8032,
      "amples": 8033,
      "Ġpreserve": 8034,
      "Also": 8035,
      "Ġrac": 8036,
      "67": 8037,
      "Ġreporting": 8038,
      "Ġprofit": 8039,
      "Ġgirl": 8040,
      "Ġbless": 8041,
      "Ġmigration": 8042,
      "Ġnom": 8043,
      "Ġopposition": 8044,
      "Ġweakness": 8045,
      "ivest": 8046,
      "Ġconsciousness": 8047,
      "ulpt": 8048,
      "Ġproductivity": 8049,
      "Ġoverwhel": 8050,
      "otherapy": 8051,
      "ĠTom": 8052,
      "Ġbelieves": 8053,
      "Ġprogramme": 8054,
      "Ġbehavioral": 8055,
      "Ġstones": 8056,
      "Ġavailability": 8057,
      "Ġsmell": 8058,
      "Ġrect": 8059,
      "ĠUt": 8060,
      "ĠDutch": 8061,
      "ĠCat": 8062,
      "Ġinsight": 8063,
      "ĠOl": 8064,
      "lete": 8065,
      "Ġlosses": 8066,
      "ĠWithout": 8067,
      "ptic": 8068,
      "Ġprotective": 8069,
      "Ġdemocracy": 8070,
      "Ġsensors": 8071,
      "ĠParliament": 8072,
      "Ġresearcher": 8073,
      "ĠBattle": 8074,
      "ĠOnline": 8075,
      "Ġ^": 8076,
      "eting": 8077,
      "urches": 8078,
      "Ġdescript": 8079,
      "Ġorders": 8080,
      "ami": 8081,
      ".).": 8082,
      "Ġroyal": 8083,
      "Ġhunting": 8084,
      "Ġphrase": 8085,
      "Ġfarms": 8086,
      "ĠIslamic": 8087,
      "Ġmanufacturers": 8088,
      "Ġkilling": 8089,
      "Ġbatteries": 8090,
      "ĠAR": 8091,
      "Ġadvent": 8092,
      "ĠStart": 8093,
      "neys": 8094,
      "Get": 8095,
      "à¥": 8096,
      "Ġtechnological": 8097,
      "holders": 8098,
      "ĠHeart": 8099,
      "Ġexped": 8100,
      "Ġsizes": 8101,
      "ĠMath": 8102,
      "ĠConfed": 8103,
      "HS": 8104,
      "Ġritual": 8105,
      "Ġordinary": 8106,
      "Ġflying": 8107,
      "ĠFind": 8108,
      "Ġinteractive": 8109,
      "ĠTO": 8110,
      "ptom": 8111,
      "ĠHand": 8112,
      "ba": 8113,
      "Ġjur": 8114,
      "gon": 8115,
      "apor": 8116,
      "lims": 8117,
      "John": 8118,
      "Ġtor": 8119,
      "Ġenables": 8120,
      "Ġupdated": 8121,
      "Ġvegetation": 8122,
      "har": 8123,
      "ricted": 8124,
      "Ġlungs": 8125,
      "ĠColorado": 8126,
      "anger": 8127,
      "Ġplain": 8128,
      "Ġofficer": 8129,
      "ĠHim": 8130,
      "Ġhumanity": 8131,
      "rat": 8132,
      "ĠWil": 8133,
      "raham": 8134,
      "Ġ1930": 8135,
      "asma": 8136,
      "sen": 8137,
      "iments": 8138,
      "Ġtong": 8139,
      "Ġherb": 8140,
      "Ġthreatened": 8141,
      "Ġdisability": 8142,
      "ĠChapter": 8143,
      "asy": 8144,
      "Ġfra": 8145,
      "Ġcure": 8146,
      "Ġvertical": 8147,
      "Ġcharged": 8148,
      "Ġbag": 8149,
      "ĠAssess": 8150,
      "04": 8151,
      "Ġdance": 8152,
      "ĠArticle": 8153,
      "Ġachievement": 8154,
      "TP": 8155,
      "Ġurine": 8156,
      "urning": 8157,
      "Ġgast": 8158,
      "Ġaimed": 8159,
      "ĠUnfortunately": 8160,
      "Ġplanting": 8161,
      "uting": 8162,
      "eor": 8163,
      "Ġcommunications": 8164,
      "hus": 8165,
      "Ġstopped": 8166,
      "ĠRoad": 8167,
      "rical": 8168,
      "iop": 8169,
      "Ġpointed": 8170,
      "una": 8171,
      "Ġelsewhere": 8172,
      "Ġ55": 8173,
      "Ġvariations": 8174,
      "ĠHor": 8175,
      "Where": 8176,
      "ĠLess": 8177,
      "aret": 8178,
      "iner": 8179,
      "Ġcomprom": 8180,
      "Ġtob": 8181,
      "Ġtick": 8182,
      "Ġpand": 8183,
      "Ġargued": 8184,
      "ĠBooks": 8185,
      "Ġintroduce": 8186,
      "dr": 8187,
      "DS": 8188,
      "Ġcord": 8189,
      "Ġimprovements": 8190,
      "Ġflash": 8191,
      "Ġcreatures": 8192,
      "gien": 8193,
      "Ġscope": 8194,
      "Ġwisdom": 8195,
      "Ã¤": 8196,
      "Ġpersonality": 8197,
      "pled": 8198,
      "Ġsodium": 8199,
      "ĠLy": 8200,
      "Ġinitiative": 8201,
      "Ġliterary": 8202,
      "Ġdramatic": 8203,
      "98": 8204,
      "iva": 8205,
      "ĠPur": 8206,
      "ipher": 8207,
      "Ġdeficiency": 8208,
      "Ġboat": 8209,
      "Ġchemistry": 8210,
      "Ġowned": 8211,
      "Ġinterventions": 8212,
      "Ġeru": 8213,
      "Ġfisher": 8214,
      "ecess": 8215,
      "Ġgrains": 8216,
      "irms": 8217,
      "Ġgeomet": 8218,
      "Ġheritage": 8219,
      "Ġsubstit": 8220,
      "Ġassets": 8221,
      "Ġillegal": 8222,
      "Ġlogic": 8223,
      "asts": 8224,
      "ĠModern": 8225,
      "63": 8226,
      "Ġshoot": 8227,
      "Ġlip": 8228,
      "http": 8229,
      "Ġexhibit": 8230,
      "aren": 8231,
      "ĠArctic": 8232,
      "ivestock": 8233,
      "ĠCho": 8234,
      "mann": 8235,
      "ĠSand": 8236,
      "Ġsevent": 8237,
      "Ġsched": 8238,
      "Ġspr": 8239,
      "Ġemerging": 8240,
      "Ġattitude": 8241,
      "Ġwonderful": 8242,
      "Ġbutton": 8243,
      "Ġexciting": 8244,
      "Ġmyst": 8245,
      "Ġpropag": 8246,
      "Ġestablishment": 8247,
      "Ġharder": 8248,
      "Ġcas": 8249,
      "zym": 8250,
      "Ġarguments": 8251,
      "EF": 8252,
      "ĠWal": 8253,
      "Ġcyber": 8254,
      "Ġcustomer": 8255,
      "ega": 8256,
      "Ġnarrative": 8257,
      "ugg": 8258,
      "Ġcalculated": 8259,
      "Ġantioxid": 8260,
      "ĠRh": 8261,
      "Ġchances": 8262,
      "Ġven": 8263,
      "Ġdress": 8264,
      "ĠBusiness": 8265,
      "Ġtemporary": 8266,
      "Ġadvis": 8267,
      "AB": 8268,
      "Ġentertain": 8269,
      "disc": 8270,
      "uits": 8271,
      "ependent": 8272,
      "Ġkeeps": 8273,
      "ĠDO": 8274,
      "ĠObs": 8275,
      "Ġbiodiversity": 8276,
      "ema": 8277,
      "ĠCard": 8278,
      "ĠWay": 8279,
      "Ġtempor": 8280,
      "Ġcourts": 8281,
      "Ġmosquit": 8282,
      "Ġabstract": 8283,
      "Ġtransmit": 8284,
      "Ġboundaries": 8285,
      "Ġpsychology": 8286,
      "Ġfinger": 8287,
      "Ġaudio": 8288,
      "oul": 8289,
      "Ġcarbohyd": 8290,
      "Ġtribes": 8291,
      "onal": 8292,
      "Ġoxid": 8293,
      "ĠSpring": 8294,
      "ĠNavy": 8295,
      "ĠSpirit": 8296,
      "kind": 8297,
      "Ġrobot": 8298,
      "ĠModel": 8299,
      "Ġanalyze": 8300,
      "Ġtobacco": 8301,
      "Ġdominant": 8302,
      "Ġcardiovascular": 8303,
      "Ġpursu": 8304,
      "Ġmothers": 8305,
      "utation": 8306,
      "ĠIT": 8307,
      "Ġinfants": 8308,
      "Ġdirections": 8309,
      "Ġfuels": 8310,
      "Ġcancers": 8311,
      "ĠTry": 8312,
      "iger": 8313,
      "Ġecosystems": 8314,
      "Ġspoken": 8315,
      "Ref": 8316,
      "07": 8317,
      "ĠBack": 8318,
      "Ġextension": 8319,
      "Ġfought": 8320,
      "Ġengines": 8321,
      "Ġfellow": 8322,
      "ĠDC": 8323,
      "Ġecological": 8324,
      "Ġflexible": 8325,
      "Ġdistricts": 8326,
      "through": 8327,
      "Ġtrauma": 8328,
      "opher": 8329,
      "iations": 8330,
      "Ġdimens": 8331,
      "ĠSystems": 8332,
      "berry": 8333,
      "agen": 8334,
      "cking": 8335,
      "endment": 8336,
      "Ġwaiting": 8337,
      "Ġcomputing": 8338,
      "Ġchap": 8339,
      "rize": 8340,
      "Ġsocieties": 8341,
      "zer": 8342,
      "IF": 8343,
      "ranean": 8344,
      "Ġpriority": 8345,
      "Ġwebsites": 8346,
      "BT": 8347,
      "jo": 8348,
      "Ġcolonies": 8349,
      ")||": 8350,
      "MA": 8351,
      "ĠPolit": 8352,
      "Com": 8353,
      "Ġreverse": 8354,
      "Cons": 8355,
      "Ġsensor": 8356,
      "Ġpanels": 8357,
      "Hist": 8358,
      "Ġcotton": 8359,
      "ĠWildlife": 8360,
      "Ġsettled": 8361,
      "Under": 8362,
      "elve": 8363,
      "ĠElizabeth": 8364,
      "Ġreasonable": 8365,
      "uan": 8366,
      "Ġperforming": 8367,
      "mia": 8368,
      "alities": 8369,
      "Ġfet": 8370,
      "ician": 8371,
      "ĠJustice": 8372,
      "ĠHarvard": 8373,
      "Ġexecutive": 8374,
      "aints": 8375,
      "Ġdim": 8376,
      "olt": 8377,
      "Ġinvestigate": 8378,
      "Ġexploration": 8379,
      "Ġcompost": 8380,
      "gener": 8381,
      "ensed": 8382,
      "Ġpreferred": 8383,
      "ĠLin": 8384,
      "Ġneutral": 8385,
      "ĠFrancisco": 8386,
      "Ġdegrad": 8387,
      "Ġincident": 8388,
      "Ġphysically": 8389,
      "ailing": 8390,
      "ĠInit": 8391,
      "bel": 8392,
      "agan": 8393,
      "Ġom": 8394,
      "Ġ95": 8395,
      "Ġtap": 8396,
      "Ġease": 8397,
      "61": 8398,
      "ĠChristianity": 8399,
      "Ġnutrient": 8400,
      "you": 8401,
      "ĠPalest": 8402,
      "Ġrecycling": 8403,
      "Ð°": 8404,
      "'.": 8405,
      "Ġmembrane": 8406,
      "Ġevident": 8407,
      "Ġassumed": 8408,
      "Ġparagraph": 8409,
      "ĠAL": 8410,
      "Step": 8411,
      "ĠLaboratory": 8412,
      "ĠGulf": 8413,
      "Ġlibr": 8414,
      "Ġconclus": 8415,
      "Ġinequ": 8416,
      "bec": 8417,
      "Ġstreets": 8418,
      "icity": 8419,
      "Ġprovince": 8420,
      "Ġsaved": 8421,
      "ipe": 8422,
      "Ġlowest": 8423,
      "Ġparad": 8424,
      "Ġspray": 8425,
      "adow": 8426,
      "Ġirrig": 8427,
      "Ġexpectations": 8428,
      "%,": 8429,
      "ĠSS": 8430,
      "ĠConference": 8431,
      "ouds": 8432,
      "ĠMic": 8433,
      "Ġpilot": 8434,
      "Ġhypothesis": 8435,
      "Ġchair": 8436,
      "Ġkingdom": 8437,
      "Ġclassified": 8438,
      "Ġenormous": 8439,
      "Ġclock": 8440,
      "ket": 8441,
      "Ġprey": 8442,
      "bean": 8443,
      "Ġguess": 8444,
      "Ġfatigue": 8445,
      "mented": 8446,
      "Ġlinear": 8447,
      "wan": 8448,
      "ĠIdent": 8449,
      "Ġtelling": 8450,
      "rix": 8451,
      "Ġlighting": 8452,
      "foot": 8453,
      "Ġorb": 8454,
      "Ġfocusing": 8455,
      "ĠEPA": 8456,
      "Ġstyles": 8457,
      "Co": 8458,
      "ĠImp": 8459,
      "uscript": 8460,
      "ĠHead": 8461,
      "Ġdeeply": 8462,
      "Ġasp": 8463,
      "Ġattach": 8464,
      "ĠHawai": 8465,
      "actions": 8466,
      "Ġwatching": 8467,
      "idal": 8468,
      "ĠIslands": 8469,
      "anted": 8470,
      "Ġemotion": 8471,
      "Ġmanaging": 8472,
      "copy": 8473,
      "thod": 8474,
      "ĠAgain": 8475,
      "Ġinterior": 8476,
      "Ġcontainer": 8477,
      "Ġuniversities": 8478,
      "advant": 8479,
      "Ġduration": 8480,
      "Ġ39": 8481,
      "ĠFar": 8482,
      "ga": 8483,
      "Ġappeal": 8484,
      "Ġdrivers": 8485,
      "ogy": 8486,
      "Ġtip": 8487,
      "Ġquantum": 8488,
      "imm": 8489,
      "Ġcorresponding": 8490,
      "Ġgent": 8491,
      "imp": 8492,
      "borne": 8493,
      "ĠBiology": 8494,
      "elescope": 8495,
      "Ġbuff": 8496,
      "Ġevening": 8497,
      "Ġengaging": 8498,
      "Ġgenome": 8499,
      "neum": 8500,
      ".'": 8501,
      "Before": 8502,
      "Art": 8503,
      "uum": 8504,
      "Ġmarketing": 8505,
      "Ġexplicit": 8506,
      "ĠPoint": 8507,
      "raq": 8508,
      "ĠMur": 8509,
      "uther": 8510,
      "feed": 8511,
      "orig": 8512,
      "Ġfats": 8513,
      "Ġentit": 8514,
      "Ġembra": 8515,
      "CL": 8516,
      "Ġhall": 8517,
      "Ġminds": 8518,
      "Ġmetals": 8519,
      "Ġbeat": 8520,
      "'d": 8521,
      "ĠCr": 8522,
      "Ġequation": 8523,
      "Ġmanager": 8524,
      "hire": 8525,
      "was": 8526,
      "Ġconverted": 8527,
      "Ġmouse": 8528,
      "ĠDrug": 8529,
      "operative": 8530,
      "Ġdetermining": 8531,
      "Ġcontributions": 8532,
      "Ġfaces": 8533,
      "Ġfing": 8534,
      "Ġdefinitely": 8535,
      "Ġgravity": 8536,
      "Ġmovie": 8537,
      "Ġdense": 8538,
      "Sm": 8539,
      "ĠContin": 8540,
      "Ġcopyright": 8541,
      "Ġcelebrated": 8542,
      "Ġempty": 8543,
      "Ġcapabilities": 8544,
      "ĠBu": 8545,
      "ĠPortug": 8546,
      "Ġentering": 8547,
      "ĠAlexander": 8548,
      "ĠPlay": 8549,
      "Ġembry": 8550,
      "ĠHa": 8551,
      "ila": 8552,
      "sor": 8553,
      "Ġchromos": 8554,
      "Ġperceived": 8555,
      "Ġ34": 8556,
      "Ġassembly": 8557,
      "Ġdiffer": 8558,
      "Ġclassical": 8559,
      "Ġexisted": 8560,
      "Ġdism": 8561,
      "ĠDown": 8562,
      "Ġhormones": 8563,
      "Ġpill": 8564,
      "made": 8565,
      "endar": 8566,
      "Ġgrounds": 8567,
      "Ġpoetry": 8568,
      "Ġstrike": 8569,
      "Ġadapted": 8570,
      "53": 8571,
      "Ġfo": 8572,
      "box": 8573,
      "Ġtens": 8574,
      "Ġsentences": 8575,
      "Ġremarkable": 8576,
      "Ġpromise": 8577,
      "Ġaging": 8578,
      "hemistry": 8579,
      "Ġworkshe": 8580,
      "ĠLittle": 8581,
      "Ġoccas": 8582,
      "Ġfur": 8583,
      "Sim": 8584,
      "encing": 8585,
      "Ġthread": 8586,
      "Ġintegration": 8587,
      "ĠAgriculture": 8588,
      "Ġhouseholds": 8589,
      "words": 8590,
      "Ġremoving": 8591,
      "ĠAnalysis": 8592,
      "Ġcontinuing": 8593,
      "Ġlabour": 8594,
      "olk": 8595,
      "istant": 8596,
      "Ġbegun": 8597,
      "Ġsafely": 8598,
      "Ġsculpt": 8599,
      "Ġholiday": 8600,
      "unct": 8601,
      "mentation": 8602,
      "ĠRam": 8603,
      "Ġmanifest": 8604,
      "Ġpy": 8605,
      "Ġbare": 8606,
      "fe": 8607,
      "bell": 8608,
      "Using": 8609,
      "Ġrequirement": 8610,
      "ĠOrig": 8611,
      "zo": 8612,
      "ĠTestament": 8613,
      "Ġneurons": 8614,
      "books": 8615,
      "ĠOtt": 8616,
      "Ġpainful": 8617,
      "lights": 8618,
      "Ġattribut": 8619,
      "Ġtrick": 8620,
      "Ġsummary": 8621,
      "Ġversus": 8622,
      "Ġapplying": 8623,
      "Ġclub": 8624,
      "ĠpH": 8625,
      "Ġcraft": 8626,
      "ĠCirc": 8627,
      "Ġassert": 8628,
      "Ġacting": 8629,
      "Ġethical": 8630,
      "Ġdies": 8631,
      "Ġenterpr": 8632,
      "Ġranging": 8633,
      "pass": 8634,
      "Ġnewspaper": 8635,
      "adelph": 8636,
      "Ġapparently": 8637,
      "Ġ1920": 8638,
      "Ġwider": 8639,
      "Ġheaven": 8640,
      "Ġvirtually": 8641,
      "OD": 8642,
      "ĠEconomic": 8643,
      "Ġtransmitted": 8644,
      "Ġ37": 8645,
      "Ġensuring": 8646,
      "ĠLos": 8647,
      "Ġtargeted": 8648,
      "ologically": 8649,
      "Ġraising": 8650,
      "Ġdevast": 8651,
      "62": 8652,
      "Ġdairy": 8653,
      "Ġpromoting": 8654,
      "Ġmanual": 8655,
      "Ġwouldn": 8656,
      "Are": 8657,
      "Ġreferences": 8658,
      "enced": 8659,
      "Ġlimitations": 8660,
      "ĠBureau": 8661,
      "Ġmedicines": 8662,
      "roud": 8663,
      "ĠMuslims": 8664,
      "Ġfeels": 8665,
      "Ġloose": 8666,
      "Ġdifferently": 8667,
      "ĠClick": 8668,
      "Ġtrem": 8669,
      "ĠCub": 8670,
      "Ġlock": 8671,
      "Ġhat": 8672,
      "EG": 8673,
      "thew": 8674,
      "ĠLast": 8675,
      "Ġlosing": 8676,
      "agnetic": 8677,
      "Ġsustainability": 8678,
      "Just": 8679,
      "ĠBang": 8680,
      "ĠImm": 8681,
      "Ġaccompanied": 8682,
      "Ð¾": 8683,
      "aka": 8684,
      "Ne": 8685,
      "world": 8686,
      "ĠConvention": 8687,
      "Ġhabitats": 8688,
      "inois": 8689,
      "asm": 8690,
      "ĠFact": 8691,
      "ceans": 8692,
      "Ġ1989": 8693,
      "Ġclothes": 8694,
      "Ġpassion": 8695,
      "Ġcontents": 8696,
      "ĠPhilipp": 8697,
      "ĠFred": 8698,
      "Ġtransc": 8699,
      "Ġfires": 8700,
      "Ġshaped": 8701,
      "Ġ2021": 8702,
      "Ġsymbols": 8703,
      "Ġlifetime": 8704,
      "Pub": 8705,
      "Ġpurchased": 8706,
      "Each": 8707,
      "play": 8708,
      "Ġcann": 8709,
      "Ġconvert": 8710,
      "fast": 8711,
      "Ġ1940": 8712,
      "Ġanticip": 8713,
      "Ġsad": 8714,
      "Ġgrades": 8715,
      "Ġjoints": 8716,
      "unc": 8717,
      "ĠPass": 8718,
      "ĠÂ£": 8719,
      "Ġfacilitate": 8720,
      "Ġchose": 8721,
      "umer": 8722,
      "Eng": 8723,
      "Ġmyself": 8724,
      "Ġspots": 8725,
      "ocolate": 8726,
      "ython": 8727,
      "2010": 8728,
      "Ġweigh": 8729,
      "ĠIndeed": 8730,
      "Ġcooperation": 8731,
      "erts": 8732,
      "Ġaddiction": 8733,
      "section": 8734,
      "mentia": 8735,
      "ĠCreek": 8736,
      "Ġresc": 8737,
      "Ġviolent": 8738,
      "Ġobst": 8739,
      "52": 8740,
      "OP": 8741,
      "Ġvictory": 8742,
      "Ġshore": 8743,
      "Ġdiarr": 8744,
      "Ġdrinks": 8745,
      "Ġsaving": 8746,
      "Ġrestore": 8747,
      "Ġseriously": 8748,
      "Ġrecre": 8749,
      "Â®": 8750,
      "Ġrealized": 8751,
      "Ġbeans": 8752,
      "Ġspinal": 8753,
      "Ġmature": 8754,
      "after": 8755,
      "cho": 8756,
      "Ġcough": 8757,
      "Ġgly": 8758,
      "Ġphotographs": 8759,
      "ĠMess": 8760,
      "adelphia": 8761,
      "Ġshed": 8762,
      "eries": 8763,
      "ĠID": 8764,
      "ĠCode": 8765,
      "ĠSunday": 8766,
      "Ġreadily": 8767,
      "Ġaccord": 8768,
      "Ġdiscussions": 8769,
      "ati": 8770,
      "Ġnotion": 8771,
      "!!": 8772,
      "Ġintegr": 8773,
      "Ġtack": 8774,
      "lymp": 8775,
      "Source": 8776,
      "Ġverb": 8777,
      "âĢłâĢł": 8778,
      "ĠBlue": 8779,
      "Ġwithdraw": 8780,
      "Ġreplacement": 8781,
      "Ġequality": 8782,
      "Ġstood": 8783,
      "Ġimmigrants": 8784,
      "aware": 8785,
      "rh": 8786,
      "Ġtraits": 8787,
      "Ġcul": 8788,
      "Ġnutritional": 8789,
      "pre": 8790,
      "itting": 8791,
      "Ġmunicip": 8792,
      "Ġclients": 8793,
      "ĠPage": 8794,
      "Ġfunded": 8795,
      "esium": 8796,
      "Ġdil": 8797,
      "Ġexpertise": 8798,
      "amps": 8799,
      "Ġgraduate": 8800,
      "cin": 8801,
      "ĠIce": 8802,
      "RC": 8803,
      "mail": 8804,
      "Ġpersonnel": 8805,
      "Ġpion": 8806,
      "text": 8807,
      "ĠLew": 8808,
      "Ġresil": 8809,
      "Ġwars": 8810,
      "Ġprofile": 8811,
      "ĠWikipedia": 8812,
      "Ġtab": 8813,
      "Ġnoticed": 8814,
      "Ġorigins": 8815,
      "opl": 8816,
      "Ġactively": 8817,
      "Ġatoms": 8818,
      "Ġemerged": 8819,
      "ĠMach": 8820,
      "Ġhandling": 8821,
      "Ġbarriers": 8822,
      "Ġsongs": 8823,
      "Ġprevalence": 8824,
      "Ġtact": 8825,
      "Ġdropped": 8826,
      "ĠSeveral": 8827,
      "ĠGall": 8828,
      "fulness": 8829,
      "Ġcomplexity": 8830,
      "Ġcolony": 8831,
      "Ġaggressive": 8832,
      "Ġreflected": 8833,
      "ifice": 8834,
      "Ġprobability": 8835,
      "ĠSecretary": 8836,
      "Ġscat": 8837,
      "Ġhaven": 8838,
      "Ġviral": 8839,
      "ico": 8840,
      "Ġinvolvement": 8841,
      "chnology": 8842,
      ":||": 8843,
      "Ġunn": 8844,
      "Ġconvey": 8845,
      "ĠCE": 8846,
      "Ġwearing": 8847,
      "regon": 8848,
      "usive": 8849,
      "Ġgathered": 8850,
      "ĠTreatment": 8851,
      "Ġspoke": 8852,
      "Ġmarg": 8853,
      "Ġdigestive": 8854,
      "Ġcow": 8855,
      "Ġliterally": 8856,
      "Ġfriendly": 8857,
      "Ġsacred": 8858,
      "Ġacknowled": 8859,
      "Ġspacecraft": 8860,
      "ĠIraq": 8861,
      "Ġalign": 8862,
      "Ġintention": 8863,
      "izers": 8864,
      "Ġcheap": 8865,
      "Ġspecified": 8866,
      "ĠMax": 8867,
      "ĠProcess": 8868,
      "oves": 8869,
      "Ġoccupied": 8870,
      "Ġoste": 8871,
      "Ġsulf": 8872,
      "Ġopinions": 8873,
      "Then": 8874,
      "acent": 8875,
      "ĠStan": 8876,
      "ĠSaint": 8877,
      "Ġbalanced": 8878,
      "Ġcrown": 8879,
      "specific": 8880,
      "Ġgif": 8881,
      "ilson": 8882,
      "ĠAsk": 8883,
      "Ġevolutionary": 8884,
      "2012": 8885,
      "Ġreturns": 8886,
      "zyme": 8887,
      "ocity": 8888,
      "havior": 8889,
      "Like": 8890,
      "Ġrecording": 8891,
      "this": 8892,
      "Ġrepresentative": 8893,
      "Ġpeer": 8894,
      "ĠAvoid": 8895,
      "ĠVan": 8896,
      "uber": 8897,
      "Ġconversion": 8898,
      "omal": 8899,
      "ĠTemple": 8900,
      "ĠChief": 8901,
      "press": 8902,
      "Ġham": 8903,
      "ĠDaniel": 8904,
      "Sec": 8905,
      "Despite": 8906,
      "Ġshorter": 8907,
      "iterranean": 8908,
      "ĠVietnam": 8909,
      "Ġprecip": 8910,
      "Ġorange": 8911,
      "dep": 8912,
      "Ġsoils": 8913,
      "Ġaddresses": 8914,
      "TH": 8915,
      "Ġforecast": 8916,
      "Ġcirculation": 8917,
      "Ġresistant": 8918,
      "Ġcelebrate": 8919,
      "ĠDictionary": 8920,
      "oons": 8921,
      "Ġassociate": 8922,
      "green": 8923,
      "Ġjuice": 8924,
      "ĠHindu": 8925,
      "56": 8926,
      "Ġlivestock": 8927,
      "issipp": 8928,
      "Ġcab": 8929,
      "also": 8930,
      "ĠUV": 8931,
      "Ġsciences": 8932,
      "Ġbreaking": 8933,
      "ĠMid": 8934,
      "atus": 8935,
      "raine": 8936,
      "Ġash": 8937,
      "Ġdisplayed": 8938,
      "ĠSenate": 8939,
      "Ġsoph": 8940,
      "Ġarmed": 8941,
      "ĠArts": 8942,
      "Ġfrust": 8943,
      "Who": 8944,
      "ĠSolar": 8945,
      "Ġcouldn": 8946,
      "Ġdefault": 8947,
      "lected": 8948,
      "ĠGar": 8949,
      "Ġdevelops": 8950,
      "Ġglac": 8951,
      "ĠCentury": 8952,
      "ĠFarm": 8953,
      "Ġdict": 8954,
      "Ġgum": 8955,
      "Ġvaries": 8956,
      "Ġalarm": 8957,
      "Ġannually": 8958,
      "estions": 8959,
      "Ġears": 8960,
      "Ġwelfare": 8961,
      "Ġsuit": 8962,
      "Ġsons": 8963,
      "Ġclay": 8964,
      "rue": 8965,
      "Ġprescribed": 8966,
      "ĠMA": 8967,
      "sex": 8968,
      "Ġsale": 8969,
      "Ġmeaningful": 8970,
      "ĠCost": 8971,
      "Ġrestoration": 8972,
      "Ġattitudes": 8973,
      "Rep": 8974,
      "amil": 8975,
      "Ġprivile": 8976,
      "Ġstrategic": 8977,
      "obile": 8978,
      "ĠSection": 8979,
      "Ġuncle": 8980,
      "Ġreaches": 8981,
      "ashes": 8982,
      "claim": 8983,
      "Ġspatial": 8984,
      "Rel": 8985,
      "Ġcontrolling": 8986,
      "ĠIncre": 8987,
      "Ġhospitals": 8988,
      "Use": 8989,
      "Ġwing": 8990,
      "Ġhal": 8991,
      "ĠInvest": 8992,
      "oded": 8993,
      "Ðµ": 8994,
      "aya": 8995,
      "ĠStandard": 8996,
      "ĠDesc": 8997,
      "isd": 8998,
      "ĠIndones": 8999,
      "outheast": 9000,
      "ĠPerhaps": 9001,
      "Ġscenario": 9002,
      "Ġsessions": 9003,
      "Ġspecialized": 9004,
      "Ġrestaur": 9005,
      "ĠFair": 9006,
      "ĠField": 9007,
      "ĠOk": 9008,
      "lav": 9009,
      "onents": 9010,
      "Ġunlikely": 9011,
      "2011": 9012,
      "ĠFrid": 9013,
      "onday": 9014,
      "Ġqualities": 9015,
      "Ġengagement": 9016,
      "Ġtends": 9017,
      "Ġpermit": 9018,
      "Ġdiscipline": 9019,
      "ĠLater": 9020,
      "Ġrefused": 9021,
      "Tra": 9022,
      "Ġplanted": 9023,
      "Ġcited": 9024,
      "cience": 9025,
      "Ġgods": 9026,
      "Ġgift": 9027,
      "awn": 9028,
      "Ġscheme": 9029,
      "Ġprayer": 9030,
      "Ġwat": 9031,
      "ĠBuilding": 9032,
      "Two": 9033,
      "ĠAmazon": 9034,
      "Ġreign": 9035,
      "á¹": 9036,
      "awa": 9037,
      "SP": 9038,
      "Ġbleeding": 9039,
      "Ġvaried": 9040,
      "ĠHeritage": 9041,
      "vation": 9042,
      "Ġcub": 9043,
      "Ġquantities": 9044,
      "ĠCapt": 9045,
      "54": 9046,
      "Ġcandidate": 9047,
      "Ġtrace": 9048,
      "zymes": 9049,
      "ĠKent": 9050,
      "Ġrepresenting": 9051,
      ".:": 9052,
      "Ġpel": 9053,
      "Ġtransferred": 9054,
      "Ġconstra": 9055,
      "Ġlogical": 9056,
      "ais": 9057,
      "Ġreserved": 9058,
      "Ġsavings": 9059,
      "Ġion": 9060,
      "mond": 9061,
      "Gl": 9062,
      "swe": 9063,
      "ĠPu": 9064,
      "Ġsolving": 9065,
      "ĠCA": 9066,
      "Ġpaying": 9067,
      "ĠLevel": 9068,
      "Ġteens": 9069,
      "Ġchoosing": 9070,
      "Ġadvances": 9071,
      "emb": 9072,
      "Ġcurrency": 9073,
      "Ġdivine": 9074,
      "Ġabsorb": 9075,
      "icating": 9076,
      "Ġrevers": 9077,
      "ĠIllinois": 9078,
      "ĠSym": 9079,
      "ĠNob": 9080,
      "Ġcoron": 9081,
      "Ġoptical": 9082,
      "mental": 9083,
      "Ġpowder": 9084,
      "ackson": 9085,
      "Ġtone": 9086,
      "eutic": 9087,
      "Ġchurches": 9088,
      "Ġ42": 9089,
      "!âĢĿ": 9090,
      "Ġpractition": 9091,
      "Ġdevelopments": 9092,
      "Ġcollective": 9093,
      "Ġproductive": 9094,
      "Ġpairs": 9095,
      "ĠOlymp": 9096,
      "Ġprime": 9097,
      "cule": 9098,
      "friend": 9099,
      "Ġclassic": 9100,
      "uity": 9101,
      "Ġparticle": 9102,
      "Ġstrange": 9103,
      "Ġpupils": 9104,
      "ĠMaterial": 9105,
      "Ġstreams": 9106,
      "Ġjoy": 9107,
      "ĠFil": 9108,
      "Ġgardens": 9109,
      "apes": 9110,
      "ref": 9111,
      "ĠHistorical": 9112,
      "ogens": 9113,
      "unning": 9114,
      "ologic": 9115,
      "Ġ×": 9116,
      "Ġprox": 9117,
      "vi": 9118,
      "Ġtongue": 9119,
      "Ġsees": 9120,
      "Ġvegetable": 9121,
      "Ġsheep": 9122,
      "sembly": 9123,
      "Ġhappiness": 9124,
      "ĠVe": 9125,
      "power": 9126,
      "rip": 9127,
      "Ġarise": 9128,
[...]
